<unk>
<pad>
<s>
</s>
.
,
ke
the
to
of
oro
and
“
”
a
:
emi
in
?
ye
mme
Jehovah
enye
that
owo
nnyịn
—
mmọ
ama
n̄kpọ
nte
-
is
Abasi
ini
Jesus
ed
for
Bible
edi
ing
se
his
we
on
​
esie
ete
was
s@@
be
with
Ke
as
I
an
t@@
not
you
he
es
are
mi
s
in@@
ik@@
idem
The
at
it
’
S@@
b@@
have
will
us
God
ẹma
or
mbon
;
1
en@@
kiet
m@@
A@@
is@@
our
utom
anam
i@@
d@@
do
u@@
c@@
by
from
p@@
n@@
M@@
man
E@@
re@@
)
(
eke
kpukpru
can
ak@@
onyụn̄
‘
their
who
an@@
Mme
e@@
es@@
r@@
w@@
f@@
they
esịt
ndinam
ikọ
l@@
ndien
g@@
er
ar@@
ọnọ
T@@
m̀mê
!
N@@
one
id@@
em@@
what
y
H@@
im@@
all
ẹs@@
ek@@
Christian
al
Enye
k@@
uwem
B@@
iso
this
it@@
2
C@@
un@@
had
a@@
were
at@@
er@@
I@@
spirit
What
akpanikọ
i
or@@
L@@
ers
P@@
him
ed@@
y@@
n̄k@@
God’s
ọdọhọ
as@@
o@@
ly
ọn̄
Edi
v@@
t
ana
ẹk@@
ib@@
ation
et@@
3
your
ediwak
them
ekeme
Paul
usụn̄
ad@@
en
ata
isua
am@@
e
Nso
In
O@@
people
on@@
Jehovah’s
enyene
ikp@@
about
al@@
my
ab@@
el@@
ọk@@
Nte
R@@
ima
ụk
o
’s
5
would
has
when
ofụri
ac@@
ate
ent
did
4
am
F@@
D@@
time
U@@
ob@@
h@@
Christ
eti
st@@
ẹnyụn̄
ok@@
6
How
nditọ
W@@
ọn̄ọ
th@@
ti@@
tr@@
aban̄a
life
n̄wed
isọn̄
ted
G@@
ibuot
ts
edi@@
but
so
n̄ko
imọ
ọk
ido
ot
may
op@@
esop
me
ns@@
those
enen̄ede
us@@
eb@@
K@@
ẹnọ
ntak
mb@@
He
akpan
fi
nd@@
ẹkp@@
en̄wen
ọ
]
[
ẹb@@
b
mbufo
7
8
ur@@
ẹnam
kpa
15
afo
edide
ufọk
her
ntre
et
ex@@
il@@
ada
nnọ
ebe
od@@
out
eme
ri@@
em
Ẹ@@
9
ẹd@@
ot@@
ag@@
om@@
A
more
akpa
Israel
inyụn̄
nt@@
di@@
how
able
fo
aha
an̄a
ẹy@@
ererimbot
for@@
akam
an̄
some
12
help
tion
ated
We
ndusụk
dis@@
also
otu
de
ap@@
ay@@
itie
good
z@@
ịm
10
ey@@
ere
le
utọ
fi@@
gr@@
such
ol@@
love
11
Ndi
ndi@@
been
up
ak
other
owụt
inọ
mm@@
ekp@@
Ntiense
uwụtn̄kpọ
way
ade
ine
It
op
many
esi@@
ting
obio
work
usen
edieke
ch@@
os@@
te
eka
ess
con@@
n
ọhọ
odu
ef@@
John
ec@@
Didie
David
nnyụn̄
ic@@
ve
inyene
even
no
than
Nnyịn
should
day
things
anamde
Mmọ
eken
13
ede
qu@@
odudu
does
When
d
u
Satan
Edieke
Witnesses
apostle
ẹdi@@
J@@
14
if@@
if
n̄kp@@
there
si@@
nsio
said
est
ud@@
sia
ut@@
enyịn
ndis@@
ally
akde
make
ous
inam
edinam
could
its
ẹt@@
el
se@@
ary
ubọk
ment
•
1@@
ẹdi
oyom
others
idi@@
k
ekedi
ev@@
Obio
ọ@@
etịn̄
eyen
su@@
ho@@
idụt
Christians
udọn̄
om
n̄wan
ifiọk
/
Ubọn̄
ence
pl@@
first
ọkọdọhọ
years
Ntak
into
Kingdom
idiọk
didie
ity
mî@@
17
ndida
she
Se
They
ẹban̄a
l
ẹkeme
pr@@
mma
c
earth
ance
ekikere
end
16
ebiet
own
world
end@@
For
Emi
ul@@
th
ọfiọk
which
n̄w@@
Peter
ning
ent@@
mban̄a
This
res@@
these
Why
ọn̄ọde
Ndi@@
faith
men
ia
ubon
ness
need
sp@@
ndib@@
heaven
age
Ikọ
idaha
But
oy@@
ẹ@@
ndik@@
ations
iti@@
ub@@
aka
ndidi
le@@
ẹnyene
20
m
come
19@@
As
over
Ọ@@
mbụk
If
made
par@@
ekọn̄
19
ẹsi@@
ce
4@@
Mb@@
example
because
ow@@
ter@@
ededi
ukpono
V@@
akan
spiritual
N̄wed
ah
ful
family
18
ndọ
like
ẹda
anade
ci@@
per@@
ufọn
edu
ẹkes@@
Psalm
only
ant
re
ings
congregation
okụt
nditọete
aba
ukpepn̄kpọ
ra@@
tutu
mbuọtidem
children
must
says
ou@@
ure
akp@@
efen
ụt
ọde
eyo
and@@
mîk@@
kp@@
ndid@@
Owo
ukara
h
being
ndit@@
nso
car@@
ntem
iba
iy@@
vi@@
6@@
ara
mmimọ
E
ọyọhọ
erede
ons
edem
etie
see
j@@
ves
str@@
ikọt
ies
koro
ely
item
You
ny@@
then
pre@@
Matthew
ones
take
ekededi
usem
know
uk@@
enyịn̄
Ẹk@@
mbono
enyenede
ro@@
cl@@
heart
over@@
ọwọrọ
well
ise
af@@
ọfọn
words
ụhọde
comm@@
uyo
king
true
used
ẹked@@
man@@
lo@@
ọn̄de
ep
mbet
ẹte
an̄ade
idi
5@@
emede
ita
sh@@
ẹnamde
akwa
nnam
Moses
idịghe
give
pri@@
ha@@
ass@@
use
An@@
ai@@
inemesịt
24
ụn̄
rem@@
n̄kpa
ar
S
just
Y@@
ds
ek
ay
inamde
wọrọ
mfịna
now
any
an̄w@@
g
21
become
edik@@
in̄wan̄
esịm
ish
very
22
Do
death
ndinyene
cr@@
ati@@
ẹkek@@
ufan
ọd@@
before
ating
nti
ying
ua
fr@@
emem
war@@
nn@@
p
att@@
ukem
ty
gu@@
ọb@@
nsinsi
That
ear@@
dr@@
ese
idiọkn̄kpọ
iban̄a
gi@@
eset
br@@
li@@
after
Ch@@
truth
x
andi@@
ukeme
Es@@
esịn
ep@@
udia
mfịn
odude
Jerusalem
Word
ain
name
might
ill@@
two
read
00
most
new
we@@
ge
enti@@
ndi
uduak
an̄wam
ake
ikeme
idahaemi
And
an̄@@
mil@@
Mma
ei@@
mbemiso
ịme
hi@@
akanam
*
ifi@@
cho@@
ene
ndikpep
ndin̄wam
Ete
rec@@
ẹka
okụk
brothers
times
pe@@
kpọt
ika
ist@@
O
tions
7@@
otde
ekere
ir@@
another
ates
bl@@
ụhọ
ọsọn̄
where
okp@@
ndinọ
Is@@
great
ality
Isaiah
through
ited
edisana
oyomde
amde
baptism
uf@@
Mar@@
Rome
much
23
ode
aw@@
ori@@
ndikụt
ọp
act
ind@@
Ndien
r
ement
To
Ntre
Th@@
ịbe
sion
ter
ect
amade
ịn̄
ịne
dec@@
etịn̄de
each
parents
ọtọn̄ọ
ekemede
etop
study
Kpa
asi@@
ast
akanamde
found
ndifiọk
ekedide
though
find
ans
asan̄autom
keep
Hebrew
ubọn̄
person
ekpep
ẹm@@
ụ@@
25
ehe
mbụme
ude
N̄k@@
me@@
opde
ver@@
ẹnen̄ede
today
inter@@
ukwọrọikọ
faithful
part
self
ite
ida
Pr@@
ndikp@@
ndin@@
30
ght
serve
himself
ịn
ẹfiọk
ụm
However
ịmde
word
son
ọkpọsọn̄
Job
Oro
red
feel
usi@@
Mbon
Ak@@
ch
against
har@@
Abraham
essed
Al@@
young
ami
cre@@
ph@@
show
One
Luke
en̄e
learn
adi@@
ish@@
wor@@
ẹnyenede
Ndusụk
etiede
pres@@
,000
ors
ow
ved
ịn@@
ibet
ently
human
arade
ẹn@@
ẹsịn
right
uy@@
ered
ew@@
als
ndomokiet
tive
edit@@
tly
abade
ents
und@@
get
wak
enyọn̄
utọn̄
okop
ther
Edi@@
edis@@
Sia
ing@@
page
erọn̄
iban
say
ifịk
Timothy
Ab@@
why
ving
ọbọ
inem
eny@@
ne@@
n̄ka
go
2@@
ministry
ue
means
obufa
bo@@
ẹdude
book
So
Ek@@
of@@
fe@@
est@@
place
worship
wrote
N̄kpọ
Adam
ọy@@
ndise
oto
enịm
ever
Nd@@
ikpe
des@@
ikpọ
ụkde
Ẹma
fac@@
never
ekpri
28
nneme
Z@@
Jew
ifụre
Ik@@
course
tie
enem
ẹkeb@@
temple
ẹdu
important
old
app@@
Ediwak
ori
Greek
obo
urua
home
ikpehe
En@@
same
ang@@
became
long
At
After
en̄ede
news
Father
led
came
ong@@
holy
adade
la@@
ze
preaching
view
ọm@@
n̄kan̄
mmọn̄
wife
unana
Utom
Ed@@
com@@
ked
do@@
imekeme
ember
N
ọnọde
omo
less
iny@@
let
upon
gh@@
ukpep
ẹdọhọ
osụk
lic@@
nyụn̄
ned
ndika
set
Mm@@
idomo
put
ily
comp@@
ear
fully
ịmede
zed
idotenyịn
ikpọn̄
out@@
too
ks
disciples
year
ished
ufọkn̄wed
in̄w@@
go@@
inen̄ede
uak
idụhe
edid@@
eri@@
Joseph
ịp
Some
gl@@
mind
hope
ntọn̄ọ
nditịn̄
our@@
Scriptures
told
min@@
aran
service
Re@@
udọn̄ọ
knowledge
eti@@
ways
days
ces
By
od
doing
co@@
ekem
abi@@
ọdọhọde
want
often
utịt
St@@
In@@
Eyen
ual
given
ry
sub@@
um@@
every
fin@@
ard
live
ov@@
contr@@
later
ọkke
under
angel
ọniọn̄
gave
ụp
les
ọfiọn̄
New
fiọk
nnennen
akpatre
began
ọkp@@
among
ages
ther@@
8@@
ory
power
back
ebuana
ea
ịk
bi@@
ọn
Afo
Solomon
ụn̄ọde
obot
uw@@
26
ndidu
ikemeke
ọs@@
ver
pro@@
There
away
mis@@
Im@@
ọn̄@@
down
mîdịghe
during
Ini
uko
de@@
Edidem
27
29
ẹdade
ach@@
ndịk
ẹkemede
land
an̄wan
emde
His
ẹf@@
loving
te@@
ikere
be@@
rel@@
ad
ist
Ar@@
ice
an̄wan̄a
ịghe
Kot
esinam
T
.@@
ẹw@@
idemesie
ikan̄
nsan̄a
As@@
Is
servants
ris@@
akabade
On
20@@
33
James
200@@
ibuotikọ
King
der
ụtde
utịp
yak
ea@@
called
century
Ntem
tu@@
making
Read
ship
ding
ewet
mbọm
ide
ewe
ments
Our
Kpukpru
ebi@@
31
ono
Genesis
Ekem
ẹdide
ọkde
eal@@
fo@@
Devil
felt
still
iere
tre@@
ell@@
ened
ekese
ifet
three
orụk
ord@@
peace
mar@@
however
Con@@
tic@@
gn@@
ourselves
ah@@
eto
etieti
fellow
mi@@
ọhọde
living
all@@
ọsọn̄ọ
Okposụkedi
sec@@
akke
Idem
pur@@
reg@@
With
took
ime
themselves
eli@@
consider
sin@@
ndutịm
n̄kpọ@@
while
ple
inv@@
ekerede
Ad@@
full
whom
Ata
house
3@@
9@@
un̄wam
humans
She
ọt
order
thr@@
utịbe
ition
ug@@
ande
iet
always
ck
kaban̄a
Tr@@
ibat
ening
40
ikie
wh@@
ndiwụt
,@@
bel@@
ẹnịm
rit@@
mbak
rep@@
ough
obode
cont@@
dem@@
ayanam
unam
ta@@
personal
ann@@
asked
fact
idatesịt
wọrọde
ẹyomde
prayer
father
ẹyom
vers@@
Yes
My
ded
ọdọn̄
asan̄a
ound@@
uwa
prov@@
okot
sy@@
ular
0@@
inịm
sel@@
look
Daniel
marriage
ende
ubi@@
eri
Egypt
nọ
ẹket@@
iw@@
rev@@
nda
Let
ali@@
joy
sur@@
Then
ath
eketịn̄de
ukp@@
N̄@@
enen̄erede
ests
hand
da
N̄ke
both
ẹwụt
face
reason
ask
Many
deli@@
ẹkụt
early
Sh@@
enọ
ụre
without
ọwọrọde
jec@@
ai
Yet
ously
ove
perfect
ess@@
M
ịbede
possible
uc@@
eyen@@
Samuel
n̄kan
afanikọn̄
appro@@
ended
Ọbọn̄
sin
ọri
no@@
Son
tical
x@@
wise
enowo
ences
ndinen̄ede
mf@@
something
Eve
think
meetings
uana
ref@@
Noah
ey
atde
mbon@@
emp@@
Israelites
aban̄ade
ekpere
learned
point
purpose
inyeneke
ndikere
Mary
ẹkenamde
toward
ative
future
ndif@@
esik@@
Ob@@
giving
happy
Ekeme
eg@@
ụn̄@@
together
uyen
ef
ndikop
iah
helped
ẹkop
Un@@
Bethel
edib@@
mbiowo
ụk@@
D
wicked
ture
akamba
afiak
husband
ands
emb@@
really
enyịme
mother
edidem
anointed
ced
Jeremiah
ọtọn̄ọde
bring
Messiah
res
inamke
Utu
mankind
Uf@@
ma
encourag@@
50
tim@@
woman
unen
serving
ekpepde
etịm
ekewet
distr@@
idiọk@@
righteous
counsel
having
enede
desi@@
Even
Per@@
ban̄a
Corinth
ibu@@
ndidi@@
Akpa
vis@@
pos@@
wisdom
edinen
ọrọ
ọdi@@
ward
ẹtịn̄de
por@@
expl@@
ingly
omke
ore
questions
lead@@
adan̄a
n̄kpri
Id@@
ọt@@
No
ven@@
Jud@@
Akp@@
itieutom
Babylon
relationship
gre@@
Ibet
ubiere
utị@@
owụtde
inua
side
inyenede
ering
between
All
ind
Saul
ubom
uny@@
rul@@
religious
conf@@
experience
idiọn̄ọ
asua
From
ubonowo
exp@@
Am@@
close
okodude
message
El@@
35
esis@@
esid@@
ẹken@@
Mark
Ima
in̄wam
32
mfọnmma
needed
ọkọdọhọde
eful
ẹny@@
result
ters
ature
city
oll@@
transl@@
language
û@@
ufọkabasi
otode
ndidọhọ
gar@@
form@@
mek
ụri
ains
ol
known
ndibi@@
left
Nt@@
present
person@@
ufen
abasi
ẹyak
again
share
thing
under@@
utu
kpep
brother
eyes
hold
int@@
elders
ern@@
̄
ety
discus@@
count@@
nsọn̄@@
esịne
199@@
heavenly
care
continue
baptized
tain@@
ach
child
tic
ong
done
ities
went
dev@@
ahade
ọkọnọde
ens
jo@@
ikemede
Wh@@
ndiọi
associ@@
offi@@
article
writ@@
odụk
okok@@
little
arawa
▪
ẹyetde
ẹkan
isan̄
light
37
teaching
eas@@
Uk@@
any@@
understand
hu@@
edumbet
tri@@
ẹto
pp@@
Em@@
n̄kpọkọbi
ebede
best
Be@@
mon@@
lives
udi@@
ikwọ
ẹbi@@
matter
Ami
ndausụn̄
ndikot
mod@@
ẹkotde
bad
Proverbs
desire
chang@@
spe@@
ọsọp
isụn̄utom
Man
Kere
ufọt
eyenete
ụh@@
gener@@
cer@@
ana@@
ose
ẹtịn̄
ari
idu
ani@@
last
Christ@@
certain
n̄kere
els
food
ures
bur@@
eng@@
inc@@
ọdiọn̄
au@@
ndiny@@
akakade
few
Judah
ided
pi@@
ịghi
esit@@
support
di
illustr@@
different
form
ner
tal@@
Apostle
ẹkpep
utuakibuot
uni@@
kind
ẹnọde
epde
34
fulfill@@
akade
try
ain@@
ap
sol@@
These
ell
Because
someone
benefit
oti@@
osio
fer@@
ancient
ible
Ọ
number
ntịn̄nnịm
fl@@
fine
Esịt
adan̄aemi
loy@@
ọdiọn̄ọ
acc@@
w
esịnede
direc@@
sure
ọf@@
AN@@
mbiet
moved
hard
less@@
Y
mbu@@
ears
nor
ged
ẹkey@@
utịn
emekeme
ack
ending
ten
Ama
fiak
cannot
nditịm
courage
ort
ets
Those
pris@@
United
ndisịn
received
ace
ọkpọn̄
ained
account
ẹkere
mag@@
the@@
Acts
az@@
prom@@
ịmke
fear
ndudue
ịm@@
ẹtọn̄ọ
better
nations
ined
Although
DE
kindness
yet
ụn̄de
he@@
enjoy
ẹn̄w@@
Your
ụn̄ọ
oku
saw
crip@@
194@@
Bar@@
Us@@
prọfet
pleas@@
ọn̄ke
believe
exc@@
ree
prophet
eh@@
law
anc@@
iyịp
going
speak
answer
friends
z
members
following
expr@@
Ih
supp@@
view@@
nditre
esịnde
Ns@@
etiene
teach@@
akada
sal@@
requ@@
nsịn
show@@
anyan
Jews
adv@@
knew
der@@
sense
oned
outh
ayak
ndinịm
edidiọn̄
R
def@@
lear@@
publ@@
thought
off
Ufọk@@
using
ject
lead
isi@@
Who
served
mîd@@
ond
nditiene
olo@@
fre@@
problems
mbub@@
wa
ukpụhọde
ẹdiọn̄ọ
cor@@
Law
wọ
ekenyenede
attitude
ead
prac@@
ines
ins@@
respect
ately
suf@@
ident
Ana
mfri
ntịn̄
den
know@@
ẹkesi@@
likely
fer
avoid
C.E
ented
far
Jacob
followers
ru@@
ct@@
amb@@
turned
indic@@
IN@@
born
receive
follow
situation
suffering
ound
peri@@
cap@@
emana
married
ị@@
nto
since
dep@@
reading
spec@@
saying
concl@@
ufọk@@
feelings
etre
ikop
Ib@@
case
gen@@
ave
ifan̄
Thus
ties
conv@@
difficult
ibọrọ
oli@@
obedi@@
thus
asan̄ade
brought
Philipp@@
eal
star@@
Ukara
mbre
change
died
on̄o
look@@
uọt
gn
yourself
trust
ns
Catholic
IK@@
Mbufo
system
ọhọke
iting
ọfọnde
nnyene
nny@@
isịn
idemmọ
needs
enyeneke
oppos@@
Consider
up@@
ekde
hon@@
progr@@
States
ually
eph@@
attention
nditie
Je@@
ants
du
aha@@
akes
yom
ndibọ
prove
until
beh@@
real
mean
ah’s
refl@@
plac@@
sons
ic
etienede
states
pray@@
ndu@@
Enyọn̄
oth@@
ọfọn̄
women
ekebe
mbuba
ẹwet
ẹtiene
ẹn̄wam
ested
ca@@
etde
ntiense
ths
mîn@@
ee
conduct
ached
trib@@
il
Ukpeme
Paradise
ndụn̄ọde
succ@@
inan̄
ukpọn̄
ukot
pray
’t
sio
H
mission@@
obụp
ubak
’@@
question
enn@@
turn
ọkwọrọ
wanted
to@@
tur@@
esị@@
ext@@
ised
ibọk
dedic@@
thinking
allow@@
ured
Ub@@
14@@
remain
Since
nam
ibi@@
liter@@
soon
ndidụk
oun@@
hab@@
tiene
imp@@
ution
idide
nation
utịn̄ikọ
esịtekọm
itiat
instruc@@
arri@@
ok
ukụt
pass@@
along
pression
reali@@
ath@@
nnịm
emke
especially
respon@@
ikot
iren
principles
around
gy
ẹkabade
ndiw@@
oted
iness
n̄kpọntịbe
taught
ps
omde
kere
money
f
fọn
wi@@
next
Ndit@@
happ@@
imm@@
Corinthians
Akwa
taking
lif@@
oke
Such
strong
os
individuals
Mic@@
Does
rely
teach
Int@@
idu@@
Yak
um
spiritually
dition
onal
mfụhọ
wrong
ọdu@@
pain
ẹkedi
clos@@
dead
wa@@
im
ements
ịt
Esie
Of
occ@@
ndisan̄a
Na@@
sent
ili@@
Ẹyak
Engl@@
satis@@
cause
eren
idan̄
0
Jon@@
world@@
ision
akpade
gives
mfọnido
nor@@
whole
cus
leta
ẹmade
idude
ẹkekp@@
aid
ụhe
assi@@
Ediyarade
resurrection
ser@@
free
poss@@
fav@@
everlasting
talk
Romans
10@@
mîkp@@
emeke
esisịt
makes
Nditọ
works
qualities
He@@
body
Rather
abarede
eben̄e
apostles
sacrifice
Kû@@
ride
including
Gospel
World
righteousness
sisters
rede
eless
cal
provide
Lord
concer@@
Elijah
195@@
refer@@
heard
proved
Joshua
coming
oss
nditọwọn̄
ust
ineme
clear
night
special
ches
verse
ẹkû@@
iketịbede
ably
water
ekpeme
dist@@
viol@@
matters
Are
un̄wọn̄ọ
Revelation
tor@@
okpon
ikan
religion
mbakara
Watchtower
Gilead
sa@@
false
ense
Ikp@@
anger
ọkọm
akpan@@
ekes@@
ẹfep
sk@@
char@@
ational
ful@@
tain
asu@@
small
ẹkedade
nditọ@@
mîkemeke
off@@
hol@@
list@@
nsu
mînyeneke
ularly
ope
eat
ẹwetde
EN@@
Koro
ebiere
eketịn̄
etịbe
While
mentioned
alf
ail@@
ịn̄de
lion
tiede
KE
Etie
ndikwọrọ
arrang@@
anana
action
ert
ọnke
otke
ans@@
ast@@
inspired
tre
Spirit
adianade
wit@@
ẹkedude
Mi
school
whether
thy
tle
idak
ens@@
kan̄a
shar@@
repor@@
high
obụkidem
ibio
enjoy@@
war
See
promise
ndikara
high@@
nothing
stand
slave
adu@@
expec@@
ikụt
Ukem
ON@@
akadade
stud@@
bir@@
en̄kpọ
great@@
ẹkenam
kingdom
loved
command@@
umb@@
beli@@
ability
ms
Rus@@
okoneyo
ost
ereke
comes
lands
ina
ẹfiak
cial
May
70
sc@@
proph@@
hour
OR@@
Fr@@
ẹmi
gned
pite
earing
cam@@
ọm
my@@
material
four
ọn̄ọke
cul@@
ẹse
daugh@@
strength
N̄kp@@
Can
cles
here
group
shows
ext
Gre@@
ill
moti@@
mbiba
n̄kukụre
ndima
iyomde
ụhọrede
ẹdọhọde
pati@@
identi@@
ut
ems
atch
omode
ẹkedide
consid@@
circumstances
Ephesus
affec@@
incl@@
similar
ekemmọ
mer@@
idade
happiness
sheep
essing
mor@@
invol@@
ide@@
Ruth
exam@@
ech
asian
io
Ex@@
certainly
edidi
Sim@@
odomo
ẹsis@@
imenyene
akama
meaning
vo@@
Gr@@
believers
truly
resul@@
ọnde
Matt
involved
bre@@
un̄wana
Creator
ather@@
Be
psalm
imitate
divine
ie
loyal
seen
ental
okos@@
ndisọn̄ọ
wal@@
ọkọb@@
understanding
ME
mfiọk
ling
blood
ẹtode
idik@@
Sam@@
taken
ekewetde
godly
temp@@
valu@@
claim@@
wide
magazine
E.N
Paul’s
ukpeme
Bo@@
38
ọtọkiet
sister
po@@
On@@
ewụhọ
produc@@
anam@@
reli@@
every@@
ndin̄w@@
protec@@
mde
ndiyom
mbiomo
poli@@
ẹdụk
govern@@
fied
ẹsio
prayers
lies
Lev@@
Ey@@
DI@@
emen
aidem
sight
mọ
ike
exerc@@
accept
sacrifi@@
usọp
Of@@
paradise
n̄kụt
sign@@
During
afai
ific@@
gift
second
ron@@
ọbọrọ
appointed
enem@@
lived
ịbi
Today
Christ’s
ịn̄@@
n̄kuk@@
uted
comfort
scho@@
Ido
based
Idi@@
60
mfọn@@
Da@@
etting
ọn@@
n̄kọri
return
unọ
interest
n̄kpep
fir@@
usọbọ
low
Like
rule
cour@@
wọrọke
oburobụt
prophecy
adaha
ndiy@@
ediomi
ped
persec@@
provid@@
congregations
showed
edidi@@
det@@
ẹkpọn̄
forever
cons@@
ES@@
baba
becom@@
Ps
asiakusụn̄
humb@@
deep@@
evidence
ekondo
kept
uforo
reas@@
ẹsọk
Ẹs@@
control
B.C.E
blessings
dem
Now
Eb@@
Ser@@
ọbọn̄
Wor@@
started
en̄wan
ntọt
wid@@
tell@@
pioneer
ood
ti
akan@@
overse@@
iyakke
don
36
okụtde
ukperedem
recogni@@
isio
displ@@
immor@@
written
effort
health
hor@@
Enyene
near
destr@@
privilege
once
n̄kọk
provided
iyom
Brọda
allow
amke
bus@@
Jewish
okposụkedi
shepher@@
duop
n̄kan@@
ẹkebede
ayed
travel@@
table
ekem@@
Not
iti
justice
conc@@
en̄erede
Ut@@
nsunsu
sing@@
lions
Ekp@@
anie
abian̄a
sil@@
ws
unity
Germany
includ@@
demonstr@@
tell
mmịn
oon
witness
blessing
Ibu@@
vely
ekenyene
Colos@@
Africa
leave
ater
ari@@
educ@@
anditiene
ubom@@
Ok@@
local
requir@@
enịmde
public@@
Kiet
Par@@
usọrọ
ri
otụk
willing
eyet
speaking
dia
preach
loc@@
meeting
cop@@
arly
okû@@
mbubehe
ka
Mmọdo
lost
deep
ufi@@
opportunity
ive
according
ism
past
ought
authority
er’s
ẹbọ
cus@@
efforts
spoke
Roman
reason@@
ọkọrọ
fai@@
actions
soul
18@@
physical
Andibot
ẹkem@@
n̄kop
okod@@
promises
oho
ndondo
39
origin@@
vation
large
anyone
tru@@
n̄n̄w@@
Uwem
confidence
edly
iwụt
ER@@
idid@@
accompl@@
Instead
ẹkot
doubt
ome
standing
Ufọkmbono
fail@@
regarding
therefore
owing
mîdụhe
already
san̄asan̄a
ant@@
increas@@
opke
organization
mfọn
pic@@
effec@@
Satan’s
wine
ọkọk@@
ians
heavens
ower
standards
circuit
sive
ase
N̄w@@
won@@
cri@@
examples
eidem
Scriptural
en̄w@@
hearts
simply
held
den@@
ọr@@
got
osu
ọfi@@
powerful
value
friend
clean
Hebrews
courag@@
draw
ẹdid@@
odot
thous@@
decisions
Still
Ri@@
entr@@
gain
reke
ubuene
imade
It@@
okob@@
onde
worshipp@@
continued
ndutụhọ
mbufa
ẹkew@@
st
greater
Their
shall
ma@@
Mî@@
than@@
field
put@@
soci@@
ikpîkpu
kn@@
THE
ibak
amama
div@@
ring
keep@@
tures
move
tation
challeng@@
Mfịn
glory
Ndinam
lar@@
Ẹd@@
effect
prepar@@
rather
ern
ndiyọ
eds
Sep@@
lied
aries
mirac@@
ekeb@@
ites
Will
ẹsụk
experienced
editịm
ghty
Ud@@
enam
omi
equ@@
andikpep
dic@@
Did
du@@
hand@@
anim@@
bea@@
fa@@
crow@@
eign
lig@@
ail
information
sed
Edisana
e’s
IS@@
pers@@
apply
ends
aedi
lim@@
helps
cultiv@@
disp@@
studi@@
osụhọde
positi@@
tion@@
wụt
longer
ass
Mal@@
adian
nyom
ẹdu@@
K
edinamde
maintain
okpụhọde
esida
poin@@
ịna
n̄kpọn̄
develop@@
ada@@
fre
ọwọn̄
ger
ists
Ju@@
older
yakke
let@@
ndụk
pages
trans@@
integrity
an̄wa
ligh@@
benef@@
ọdọ
declar@@
honor
ink
hear@@
area
KP@@
discipl@@
arede
beg@@
medi@@
ẹnyịme
believ@@
wonderful
TI@@
ẹkụtde
ẹkenọde
vital
direction
aster
ịre
esenyịn
angels
anything
ẹsinam
decision
head
ever@@
ord
enyụn̄
ges
alls
public
perhaps
1914
serious
working
osobo
rend@@
bas@@
Hence
ilities
mov@@
remember
tọsịn
accep@@
her@@
an̄ikọ
ndọn̄esịt
ẹkenyenede
sever@@
IB@@
complet@@
ekemde
L
ukw@@
events
Idịghe
ntaifiọk
en̄ekede
erc@@
determined
eyeneka
listen
cal@@
tọn̄ọ
die
ra
lik@@
osp@@
judgment
ekemeke
kû@@
Sy@@
recorded
enter
wil@@
dra@@
iyak
fy
isan̄a
n̄kpet
sins
azar@@
deal@@
country
eket@@
compani@@
ọpde
Usen
ndisi@@
ago
edin@@
building
hel@@
hear
ount
efep
urance
struc@@
one@@
miliọn
rup@@
named
itiaba
ays
ẹdomo
pros@@
ntịn̄enyịn
common
proc@@
anamke
lea@@
Indeed
en̄wed
within
months
offer
thoughts
obey
low@@
appreciation
ebịghike
ulation
heart@@
andikara
Des@@
accepted
v
teachings
Kpasụk
instance
stated
ndiyak
everything
HO@@
ria
mmemmem
Anie
ground
tually
eration
necess@@
Le@@
Jo@@
okotde
ofụm
People
complete
ediye
okoyomde
ous@@
uses
commun@@
head@@
toto
ising
Br@@
Ge@@
hands
udomo
relati@@
Eti
ched
ịn̄ke
cy@@
ick@@
ẹnen̄erede
Car@@
rest
establ@@
ịmeke
activities
en̄@@
ayan̄wam
198@@
ofụn
According
Just
Europe
Witness
cover@@
pione@@
sions
press@@
ẹsan̄a
Ọyọhọ
explained
conscience
seek
erly
Her@@
Iti@@
ọkọnọ
anxi@@
Comm@@
TH@@
PAG@@
ọsọn̄urua
etimes
ikpep
ery
Idahaemi
promised
M.E.N
andiwet
atever
esede
An
tern
eth
ụpde
afi@@
edinyan̄a
rejo@@
n̄wọrọnda
history
ịghike
ikod@@
wants
sequ@@
gri@@
n̄kann̄kụk
nsobo
branch
itiokiet
rich
Ameri@@
essi@@
edida
uyọhọ
akpana
Greece
zing
iyatesịt
ufụn
pe
inọde
buil@@
mat@@
ọn̄wọn̄ọde
mfep
ransom
olu@@
esh@@
tate
ẹbe
idit@@
Isaac
Dec@@
ame
ereikpe
practic@@
role
Utọ
Ukpepn̄kpọ
ịt@@
aying
Ọkp@@
entually
ẹkenyene
ọtde
ical
ẹtie
ebe@@
ẹkwọrọ
heal@@
Ukp@@
clearly
whose
couple
True
ụnọ
stat@@
ẹsịnde
ẹsik@@
considered
ack@@
mû@@
Su@@
ẹdik@@
offered
appear@@
mbi@@
utịm
LE
influence
ndifiak
advice
flo@@
various
Thessalon@@
NW
flesh
udu@@
Bible’s
ẹban̄ade
acts
eep
col@@
otuowo
aim
met
Ny@@
apti@@
Eph@@
mate
mba
assignment
uti@@
oughout
Ev@@
Brother
earthly
akpan̄@@
Ererimbot
earch
arr@@
letter
aifiọk
ọny@@
work@@
bu@@
York
sla@@
ẹsit@@
oken
happened
ndikpebe
psalmist
build
reach
ale
begin@@
First
nsi@@
friend@@
saf@@
ukwak
tend@@
fru@@
ẹwụtde
mîdi@@
sugg@@
faith@@
Akpan
Idụhe
thers
eneme
alone
pec@@
idemfo
ọn̄wọn̄ọ
foretold
Eyen@@
aph@@
students
ta
nsọn̄idem
describ@@
mbọhọidụn̄
regard
minis@@
training
described
ikedịghe
respond
acted
proper
helping
answers
Phil@@
ours
udịm
covenant
deed
ọkpọkpọ
call@@
Di@@
ould
natur@@
meet
asana
ash@@
N̄ko
walk
abuana
esinamde
anyan̄a
Ecclesiastes
Jos@@
harmony
Hall
Sarah
formed
princi@@
praise
otion
ikanam
No@@
ndim@@
class
nse
tuak
ica
15@@
Ukpono
neighb@@
seek@@
accur@@
ential
akak@@
vic@@
ected
gold
available
ẹkpepde
idọhọ
mbio
Deuteronomy
AR@@
resp@@
nda@@
precious
itted
ẹkewetde
repres@@
ito
prop@@
moral
ean@@
esinen̄ede
stay
ẹfi@@
ndiwet
Cor
hur@@
mas
Austr@@
fect
ọkodudu
resurrec@@
Therefore
stood
Ezeki@@
prin@@
line
chapter
wo
ụn̄sụn̄
akara
ly@@
streng@@
house@@
further
ọfiọkde
call
destruc@@
fill@@
jus@@
Oyom
ndibiere
success@@
deal
Usem
ows
visit
church
earlier
forth
bed
ufak
ẹdis@@
Jan@@
oth
Ụ@@
guidance
Galati@@
ital
ekekpepde
France
books
partic@@
please
ur
Qu@@
tem@@
ehede
concern
Man@@
survi@@
tom@@
step@@
ully
atch@@
Pharao@@
mount@@
activity
position
usiakusụn̄
Exodus
ọsọn̄de
odotde
raised
Life
source
extr@@
on’s
correc@@
sha@@
Mf@@
iọn̄
adul@@
Ewe
ọp@@
easy
sim@@
responsibility
trials
autom
prof@@
ẹkabarede
fill
convention
usọ
tici@@
poor
eresịt
ean
famil@@
tice
reasons
appreciate
tiv@@
servant
45
perfec@@
erous
mbufiọk
Would
Moreover
inher@@
tou@@
Lo@@
imag@@
okụre
open
issue
occasion
Most
itọn̄
iket@@
urity
EM@@
med
oyonyụn̄
strengthen
eda
okpono
ships
an̄ake
contain@@
prot@@
created
mfi@@
ubiak
langu@@
firm
Otu
44
ca
tried
ẹset
inst@@
sm@@
fam@@
Eli@@
ody
Phar@@
Or@@
differ@@
Kp@@
ịgh@@
righ@@
aching
ụt@@
nei@@
aining
wr@@
imit@@
probl@@
sou@@
efore
read@@
indiv@@
sac@@
uene
evil
ọnda
–
esses
n̄
shi@@
follow@@
eed
kind@@
nec@@
compl@@
devel@@
joy@@
experi@@
yụn̄
aking
inem@@
chall@@
ịnde
anted
wet
uit
emiah
can@@
emiso
sho@@
Ị@@
W
stan@@
coun@@
som@@
centur@@
ọi
spi@@
stand@@
wọrọ@@
̣@@
tit@@
continu@@
ufa
ò@@
Bib@@
ready
wọrọikọ
edu@@
av@@
organi@@
will@@
Tim@@
oci@@
clo@@
seri@@
uring
Christi@@
cha@@
n̄@@
idụn̄
Uw@@
fering
cou@@
haps
qual@@
Lu@@
chil@@
ven
on̄@@
spirit@@
J
otikọ
Gal@@
·@@
nesses
hist@@
answ@@
udu
ept
Ger@@
ni@@
import@@
gh
idem@@
ld
appreci@@
eutom
who@@
crib@@
․
uch
god@@
isions
andik@@
jud@@
ọrede
ith
help@@
sm
Eny@@
disci@@
feel@@
ards
C
sue
ames
influ@@
main@@
é@@
eneke
bor@@
Jeho@@
oub@@
G
F
usụk
thor@@
privil@@
recei@@
id
mes
situ@@
ques@@
Er@@
Jer@@
Mos@@
ịb@@
efi@@
reat@@
yp@@
gif@@
youn@@
urch
earth@@
De@@
ples
edịghe
ọtidem
fered
sion@@
ọkpọ
materi@@
an̄autom
serv@@
ụtn̄kpọ
worshi@@
ile
anci@@
uel
zek@@
mean@@
judg@@
respons@@
P
Ac@@
hea@@
enced
lic
ir
prod@@
appoin@@
consci@@
conduc@@
Babyl@@
V
grou@@
opport@@
mmem@@
occasi@@
ders
pra@@
wic@@
lasting
husb@@
responsib@@
pow@@
ial
an’s
lood
ne
prophec@@
m̀m@@
ʹ@@
U
ention
pose
ew
ru
ọke
ustr@@
sụn̄
fter
itu@@
é
ousness
otu@@
ụn
ekọm
Cor@@
wis@@
PA@@
doub@@
Abr@@
determin@@
Pet@@
asụk
gover@@
ises
religi@@
Israel@@
difficul@@
prob@@
author@@
The@@
ụme
physi@@
Do@@
dren
Isra@@
Mor@@
Joh@@
knowled@@
Abrah@@
til@@
Egyp@@
isters
dif@@
Pe@@
benefi@@
esh
Messi@@
ount@@
fel@@
fur@@
vari@@
okon@@
Phili@@
Josep@@
onom@@
le’s
trav@@
yl@@
sid@@
gin@@
priv@@
pde
val@@
ility
eve
ikọn̄
some@@
Spi@@
ọfet
ho
ere@@
tural
ul
rc@@
kpọ
ịn̄ikọ
dom
í@@
eld
ether
B
inspi@@
aken
reco@@
ü@@
Gen@@
inyan̄a
whi@@
wish
long@@
̀m@@
Col@@
amed
deter@@
Sin@@
kọ
kpu
with@@
duc@@
avo@@
ospel
tidem
bet@@
akibuot
edic@@
ara@@
assign@@
insi
Acc@@
aul@@
ld@@
ụkidem
regar@@
uns@@
chap@@
guid@@
á@@
apost@@
tode
mess@@
Tho@@
,0@@
mir@@
mfr@@
need@@
ife
eep@@
inform@@
magaz@@
couns@@
circum@@
oin@@
ource
numb@@
Bec@@
las@@
cov@@
Scrip@@
isụn̄@@
X@@
greg@@
Sar@@
◆
Jac@@
ewetde
nyịn
relation@@
neigh@@
vice
ollow@@
tow@@
Ind@@
simil@@
⁠
org@@
otenyịn
bọn̄
gg@@
ather
uth
esịt@@
Esi@@
zation
angu@@
ndom@@
fec@@
î@@
ọh@@
cent@@
led@@
Solom@@
contin@@
Afri@@
©
yarade
attit@@
thin@@
wom@@
menti@@
ough@@
esịn@@
olic
Ph@@
sis@@
amba
fal@@
erful
Okp@@
foret@@
count
cc@@
ã@@
fri@@
Q@@
evel@@
epher@@
un̄w@@
Sat@@
ó@@
Mat@@
Cath@@
Paul@@
atesịt
atis@@
jah
—@@
Co@@
Eur@@
othing
utu@@
ece
wọn̄
book@@
rifi@@
è@@
certain@@
idence
ö@@
ekede
embers
$
vention
atre
port@@
ob
Edis@@
apos@@
psal@@
ʹ
nyeneke
Dani@@
□
●
aw
ọsịn
harmon@@
simp@@
ụr@@
God@@
æ@@
abl@@
ben@@
Ther@@
fol@@
adan̄a@@
till
ac
ọn̄esịt
|
ially
syst@@
marri@@
preci@@
ondo
stances
Bab@@
activ@@
mili@@
anikọn̄
mem
bapti@@
ainst
Rom@@
ao@@
flu@@
your@@
Isai@@
forts
recogn@@
yọhọ
ointed
aim@@
til
ndut@@
fort
how@@
bran@@
ause
Ot@@
asi
vid
mbot
ô@@
Ec@@
ennen
lier
ọsọn̄@@
gether
san̄@@
ú@@
Jerusal@@
ê
circ@@
Gil@@
congreg@@
ege
ou
though@@
atur@@
wonder@@
ysi@@
tower
Heb@@
ñ@@
ọkọbi
ọn̄w@@
usb@@
ł@@
urrec@@
Wit@@
Sol@@
>
ọdo
epn̄kpọ
an̄a@@
tau@@
ç@@
eredem
Fir@@
ndibot
X
Yor@@
Apos@@
hum@@
Ŋ@@
á
akusụn̄
q
Consid@@
○
uture
Creat@@
unsu
xi@@
eft
ndud@@
bs
Á@@
ople
onowo
&
grity
How@@
Matthe@@
ntịbe
inte@@
him@@
onomy
n̄wọr@@
ọhọidụn̄
Timoth@@
record@@
osụk@@
dau@@
:@@
ä@@
individu@@
demon@@
aul
urobụt
̄@@
í
atters
okiet
meet@@
ording
hou@@
pub@@
lit@@
Z
q@@
Corinth@@
ọkiet
ticle
⇩
₦
îkpu
°
ë
rit
j
à
zeki@@
ween
Watch@@
ö
Isa@@
n̄kụk
É@@
č@@
ʼ@@
clesi@@
esus
overbs
ʽ@@
enant
esis
Corin@@
ansom
ê@@
ה@@
emselves
̀@@
ficul@@
hua
←
B.@@
Chris@@
Î@@
ה
↓
◇
bec@@
י@@
ו@@
Ê
â@@
rote
ọhọ@@
espec@@
adise
ë@@
astes
avail@@
ā@@
Û@@
=
Ecclesi@@
ø@@
alon@@
®
righte@@
è
▸
%
ń@@
More@@
Jehov@@
à@@
ñ
―
ū@@
ł
ntịn̄@@
̆@@
_@@
ś@@
Ž@@
Q
selves
Didi@@
mist
uter@@
thel
­
Í@@
ú
ọda
š@@
\
M.@@
heaven@@
stead
⇨
Eg@@
obụt
ý
−
ׁ
̇@@
ש@@
→
ę@@
↑
פ@@
נ@@
❖
‛
C.@@
­@@
ä
æ
✔
Ş@@
Ô@@
ó
å@@
Š@@
wọr@@
£
ż@@
Ü@@
Ã@@
☞
ý@@
É
ß
€
΄
ịg@@
Å@@
ï@@
ù@@
ã
▾
ő@@
̗@@
È@@
ą@@
Ó@@
å
Ł@@
ē
odus
י
μ@@
ß@@
Ḥ@@
ʼ
Thess@@
ū
Hebre@@
ī
ē@@
#
ì@@
ḍ@@
Ç@@
ŋ@@
Ò@@
-@@
Ö@@
̆
Ṭ@@
Ñ@@
ẹ
È
ï
ǒ
@
ò
ě@@
ž@@
Ú@@
Ż@@
_
Jerus@@
â
ć
ü
ı@@
ù
ź
Revel@@
™
‘@@
õ@@
.N
Á
Å
ī@@
ů@@
+
̧@@
ụ
ṃ
ị
ṭ
osụkedi
À@@
ṭ@@
Ė@@
ʺ
⁄@@
ō
ι
⁄
◀
ˋ@@
/@@
ā
Α@@
bless@@
;@@"
"@@
het
van
nie
wat
hulle
dat
ge@@
god
dit
jehovah
sy
vir
aan
kan
hy
"die
sal
jesus
"“
"the
deur
jy
"in
hierdie
na
oor
jou
moet
wees
mense
"dit
bible
ander
aan@@
mo@@
tot
sê
ook
uit@@
ste
hom
baie
toe
voor@@
daar
lewe
"maar
maar
oor@@
hoe
soos
maak
een
gesê
doen
meer
"as
kom
so@@
lik
god’s
net
jehovah’s
tra@@
werk
bybel
"(
des
na@@
ger@@
gaan
julle
laat
sou
ont@@
ste@@
dig
tyd
gebruik
haar
hou
wanneer
pa@@
ss
vol@@
"hy
"what
"ons
"ek
waar@@
groot
ve@@
jaar
onder@@
begin
ga@@
sien
witnesses
ke@@
getuies
oo@@
voor
onder
sen@@
sie
dige
sti@@
tel@@
ber@@
"it
gee
da@@
wil
kinders
nog
"hulle
dag
"he
wêreld
"but
mens
kon
waar
ie@@
kk@@
daardie
teen
ten@@
neem
men@@
ko@@
ster@@
"hoe
dinge
sta@@
bybel@@
"i
"wat
aarde
ba@@
dus
deel
hê
ss@@
goeie
gra@@
tes
aa@@
gemaak
saam
ses
stel
gehad
ging
nou
lu@@
leer
kom@@
sing
va@@
keer
"how
ls
"jesus
ster
toe@@
gro@@
by@@
wer@@
aal
toon
"this
sts
je@@
christian
aange@@
bly
stre@@
selfs
ui@@
ry@@
ct
gegee
inge
wing
"jehovah
heid
eerste
"they
ple@@
"we
lan@@
aar@@
lank
gs
geen
af
"when
ged@@
dien
christus
woord
vind
dalk
elke
omdat
ju@@
liefde
woorde
dan@@
twee
ble
christene
rea@@
gesk@@
eg
ouers
huis
christians
vor@@
nuwe
"en
loo@@
moontlik
ware
"for
sies
alle
dink
"hierdie
staan
"toe
cu@@
cted
israel
bro@@
gte
geloof
ction
kon@@
lees
wie
watter
vrou
lig
dan
christ
skap
tig
wel@@
verb@@
paulus
weer
aar
bri@@
wer
son@@
spo@@
indi@@
gedoen
geword
dood
sig@@
gekom
"’
satan
ges@@
stu@@
plan@@
weet
ken@@
tro@@
seer
paul
pu@@
"and
"a
"if
wy@@
waarom
kl@@
moes
daar@@
almal
dié
gees
goed
nu@@
gew@@
stra@@
ble@@
ken
gestel
diegene
hele
ssi@@
nodig
probeer
sle@@
ssed
daarvan
geestelike
naam
aat
sodat
dre@@
ce@@
geneem
qui@@
ig
pen@@
"so
tog
boek
ig@@
paar
eie
ty@@
sulke
van@@
stel@@
geskryf
pla@@
gtige
cation
ker
dikwels
iemand
mu@@
cts
delik
iets
seun
kan@@
000
lief@@
john
maa@@
"daar
kyk
geb@@
sted
moe@@
produ@@
sonder
ka@@
sh
vandag
"sy
party
mp@@
hart
gevind
waarheid
ssing
del@@
stor@@
"wanneer
ker@@
koninkryk
ran@@
tiese
bar@@
werk@@
gemeente
terwyl
hoo@@
vader
pas@@
val
voel
gesin
vre@@
tussen
oop
sor@@
ël
byvoorbeeld
mer
gesien
hoof@@
yed
ssion
"□
hede
han@@
sto@@
beteken
nooit
onge@@
bare
jerusalem
delike
cla@@
beskou
ontvang
sting
weg
ouer
ag
manier
wyse
ins
alles
manne
wn
fore@@
volg
erde
wan@@
kor@@
loop
sel
uitge@@
dent
prie@@
koning
prote@@
"however
enige
self@@
"why
gene@@
posi@@
praat
kry
raad
drie
kke
likheid
digheid
vol
dro@@
dae
opge@@
bes@@
tor
eer
lei
oc@@
win@@
jare
volk
geniet
kort
"is
voort@@
broers
ban@@
genoem
dri@@
lie@@
bied
job
chan@@
heer@@
ele@@
mekaar
moses
"some
vra
stri@@
dor@@
oud
"my
eer@@
fte
deci@@
altyd
wri@@
"in@@
bra@@
wen@@
dering
sit
pas
johannes
state
ming
vry@@
"waarom
publi@@
vrede
sig
cen@@
iese
ining
werklik
diens
disc@@
"by
teen@@
soek
beter
woon
dieselfde
visi@@
stad
volgende
sty@@
reg
bab@@
"watter
per
dra
hulp
kte
ërs
toege@@
geleer
vier
"to
antwoord
kle@@
hoop
glo
hier@@
ys
wel
terug@@
stig
gevolg
"god
verduidelik
einde
gele@@
appe@@
ren@@
"that
versk@@
hui@@
"hoewel
een@@
dru@@
week
uur
fran@@
oni@@
sek@@
vertel
rig
tt@@
"at
heilige
plek
spre@@
ff@@
"•
apostel
gesin@@
get@@
bestaan
gedurende
egter
christelike
druk
amp@@
ler@@
cti@@
pa
dele
meeste
"*
"after
regte
persoon
ige
krag
"one
emo@@
ier
sie@@
see@@
gev@@
grond
artikel
belo@@
dui@@
gere@@
stelling
gevra
open@@
verge@@
sowel
goed@@
kra@@
intere@@
tjie
weer@@
raak
ink@@
middel
besluit
voorbeeld
tree
voorsien
mag
geval
ameri@@
kun@@
consi@@
evi@@
probleme
tte
vru@@
"jy
offer@@
sommige
jong
peter
mid@@
lande
gehou
christen@@
studie
wou
besef
dheid
comple@@
expre@@
encoura@@
lat@@
presen@@
david
gebring
dly
weens
min
verander
middel@@
cy
gek@@
verstaan
lin@@
raa@@
petrus
stru@@
matthew
ck@@
wers
roo@@
ska@@
godsdiens
wo@@
haal
teit
gebe@@
trou@@
"om
vel@@
dawid
aars
"een
aag
klein
vers
lief
leiding
kennis
profe@@
volle
klik
ryk
lyk
gegaan
taal
gebied
blo@@
tran@@
gebeur
stro@@
volgens
moedig
mini@@
geld
sb@@
eeu
sters
boo@@
vas@@
instru@@
trek
kin@@
"you
"‘
bekend
steeds
united
nuus
sui@@
scriptures
un
teenoor
ná
tige
"then
eks
wys
enge@@
"there
yn@@
vroue
abraham
nie@@
"on
fu@@
daarna
tors
chi@@
"baie
veral
werp
besoek
tye
gevoel
eerder
gel@@
succe@@
tional
adam
ts@@
deel@@
tyd@@
daa@@
bediening
che@@
baar
"of
deur@@
kes
ooi
duidelik
ings@@
hoor
"party
gehelp
groot@@
ongeveer
c.e
sse
doel@@
"many
broer
weg@@
sorg
teer
klike
veroorsaak
"ja
godsdien@@
duur
voordat
gang
scrip@@
"yet
hun@@
jongmense
mee
ei
kers
verk@@
eers
lê
ser
ars
lipp@@
aanvaar
san@@
"she
nam@@
gan@@
liggaam
waarop
persent
feit
ctive
soms
tting
genesis
minder
lie
slaa@@
rela@@
anders
din@@
hemel
saak
veel
groter
regver@@
stelsel
talle
ze@@
vrees
tjies
nadat
gheid
mel@@
beslis
jon@@
sers
punt
"▪
uiteindelik
obe@@
disa@@
besk@@
vie@@
musi@@
vy@@
dok@@
skool
ft
tel
percent
doel
mensdom
skul@@
sake
nasies
cel@@
dissipels
stem
len@@
voer
rui@@
vlo@@
"these
verenigde
cur@@
nood@@
"volgens
"soos
kno@@
oë
tiewe
"re@@
getoon
diging
dig@@
onthou
vriende
jesaja
moei@@
genoeg
bewys
descri@@
vorm
lewens@@
verstan@@
requi@@
ding@@
waa@@
sag@@
ein@@
verantwoor@@
scienti@@
vreugde
beweeg
bly@@
spreek
dings
aring
"op
gers
openbaar
beskryf
sam@@
sl@@
bereik
mber
phi@@
soort
kerk
sluit
wêreld@@
siese
geer
vertroue
kings
niks
cated
gui@@
half
vrae
kam@@
mal@@
dien@@
exi@@
hier
omtrent
veili@@
hei@@
aal@@
moeilik
heen
inde@@
isaiah
fil@@
spoor
aanbidding
aandag
york
eet
inclu@@
lity
fle@@
ini@@
bal@@
nat@@
ite@@
doc@@
seker
daarop
responsi@@
laaste
sekere
famili@@
gesla@@
reë@@
she@@
anti@@
heid@@
skrif
siekte
brea@@
tal
theid
lug
bou
mans
verslag
plaas
getroue
teken
pat@@
"yes
sels
bew@@
g.j
"even
lish
hul@@
gewe@@
bespreek
span@@
stance
sses
verband
vermoë
expe@@
dere
neder@@
euro@@
ange@@
saa@@
aard@@
fun@@
mee@@
grootste
erken
verhouding
gende
reeds
agter@@
aangesien
lot
knegte
kking
kbaar
ewige
yn
maklik
ologi@@
waarskynlik
spreuke
messi@@
bo
siek@@
"do
d’s
bul@@
wende
vergaderinge
koninkryks@@
sterk
gewoonlik
onderste@@
situasie
provi@@
dered
belangrik
inge@@
swa@@
natuurlik
cle@@
"thus
skri@@
gelei
veran@@
volu@@
inten@@
atten@@
discu@@
wonder
daad
tter@@
proverbs
ele
verloor
geleentheid
stitu@@
verkondig
million
sien@@
sat@@
vergelyk
cro@@
cs
skryf
"het
christen
persoonlike
belang@@
dam@@
openbaring
gebed
christ@@
seën
speci@@
gehoor
"mo@@
luister
sea
universi@@
society
vloed
verskillende
"omdat
probleem
heav@@
tui@@
likes
waarin
diere
dur@@
hal@@
asse@@
stam@@
belie@@
gedink
bloed
mede@@
aam@@
conclu@@
confi@@
eding
illustra@@
bid
los
nis
goddel@@
bru@@
belangrike
ooreen@@
gend
greek
gevolglik
dog@@
stic
crea@@
bes
handel@@
toekoms
eens
problem
oorlog
vla@@
kant
miljoen
ondersoek
elkeen
prophe@@
miskien
rag
beste
gevo@@
oon@@
watchtower
slae
staat
bb@@
reve@@
care@@
wetenskap@@
matteus
delikheid
sonde
australi@@
science
wysheid
corinthians
hart@@
mark
verlaat
revelation
cally
glo@@
gewoon
nal
jode
jeremi@@
teenwoor@@
studies
bel
reger@@
tweede
assig@@
log@@
tradi@@
evange@@
ener@@
tydens
"nadat
dom@@
asie
ffer
berig
hed
meter
vestig
geweet
oot@@
nw
sië@@
"later
stige
tydskrif
saam@@
ases
ctions
bli@@
groep
"since
"because
oos
gepraat
jan@@
perk
behoort
rus
verkry
dag@@
vertrou
hoe@@
vin@@
huwelik
werke
"although
"h@@
eil@@
gestuur
vel
"ne@@
gebore
hemelse
hes
"be@@
bek@@
ner@@
gevaar
pal@@
challen@@
mark@@
verwag
cra@@
sterf
epe
mense@@
êre
dade
spraak
leer@@
"met
kri@@
rying
dood@@
daarin
wig
"according
handelinge
commen@@
program
ton@@
oordeel
oms
effe@@
"trouens
onlan@@
logi@@
heeltemal
stuur
"with
y’s
sko@@
gebou
hoof
buit@@
geskiedenis
navor@@
gal@@
slegs
james
lang
pt
water@@
oper@@
daaraan
kar@@
cting
"deur
bladsy
beskouing
aanse
asies
far@@
verder
ku@@
beau@@
naby
skepper
timothy
";
binne
dance
verv@@
mand
israeliete
ton
vryheid
beskerm
loj@@
kos
"paulus
cing
gedrag
cate
moeder
saaklik
luke
wag
speel
jews
vermy
gue
accomp@@
"ho@@
affe@@
plaas@@
werklikheid
tin@@
dar@@
"let
rol@@
duit@@
rig@@
spite
geraak
gelowi@@
hoog@@
gevoelens
"de@@
suk@@
search
stes
asof
maande
memor@@
ente
dek
waarvan
don@@
ja
n’t
diges
üs
watch
catholic
oue
five
countries
israelites
"aangesien
inligting
gesindheid
pap@@
lede
bac@@
gesluit
moun@@
swe@@
belangri@@
eling
jako@@
sis
soveel
reu@@
pte
enigie@@
beeld
lord
lukas
gedoop
lige
"while
modern
oortui@@
"our
communi@@
verspre@@
gement
beveel
reports
advan@@
vernietig
dence
liefdevolle
dwel@@
dedi@@
gesterf
report
ër
merk
gir@@
hande
beso@@
ki@@
die@@
depre@@
"no
tan@@
resi@@
elde
gesit
sun@@
iled
nasionale
gekry
gelukkig
doo@@
vaar@@
onver@@
pad
stuk
gedagte
niemand
100
verwys
heili@@
christendom
creator
binne@@
heel
fli@@
lose
filled
berg
tuur
hartigheid
dding
gedra
"no@@
enjo@@
vertro@@
ny
nader
gemeen@@
ber
bility
rema@@
feet
sheid
jour@@
beïn@@
lam@@
exerci@@
oorsp@@
vroeë
ooit
aas
"terwyl
wed
sar@@
jarige
gelees
drink
atu@@
thre@@
samuel
verei@@
ja@@
japan
jaar@@
vraag
que@@
grond@@
liker
ongelu@@
katolieke
algemeen
heel@@
smo@@
proce@@
comman@@
kal@@
kla@@
toewy@@
vooruit@@
versterk
hospit@@
stemming
spesiale
bero@@
struction
plaaslike
enc@@
privile@@
gewil@@
you@@
miljoene
pointed
bevat
"his
wek
afrika
romans
wat@@
groei
behandel
gelede
blykbaar
sometimes
getrou
slag
wes
romeine
neer@@
gehoorsaam
halwe
government
ernstige
aantal
bus
tse
"such
beheer
refle@@
nou@@
natural
rate
auth@@
sugge@@
rol
wonderlike
beginsels
vang
maniere
miles
egi@@
paul@@
cations
gelê
occa@@
kilometer
above
univer@@
waarde
kste
organisasie
terug
lings
millions
vyf
bedrywi@@
vil@@
gelo@@
eienskappe
verkl@@
pho@@
onderrig@@
fic
diep
geregtigheid
verga@@
wêreldwy@@
several
liks
gebly
tien@@
"al@@
don’t
leg@@
voorspel
land@@
mary
tho@@
wet@@
natuur@@
volmaakte
koms
hedendaagse
ryf
afri@@
kende
hin@@
197@@
lon@@
vervul
are@@
nasie
vertal@@
huwelik@@
lid
goddelike
wagtoring
transla@@
saamheid
geeste@@
thel@@
persoon@@
sland
arran@@
pline
pun@@
verkon@@
maj@@
leef
ouder@@
pop@@
mexi@@
mul@@
brief
gewone
minu@@
naam@@
vate
verd@@
rome
drukking
vlie@@
door@@
vul@@
voedsel
mei@@
uitwerking
volwas@@
oot
begeerte
ii
belan@@
soort@@
ongetwyfeld
sign
was@@
u.@@
baarheid
politi@@
tism
duisende
plekke
betrokke
"daar@@
del
sag
dik@@
thir@@
ners
disease
ontwikkel
devi@@
boodskap
"gedurende
lei@@
eertydse
dness
roor
"daarom
getrou@@
ontstaan
swaar
logy
bev@@
bloed@@
beelde
tuur@@
"all
uri@@
valse
agre@@
spesi@@
babil@@
dank@@
sosi@@
sowat
spor@@
ood@@
ats
reer
je
"during
geë@@
kies
mers
mens@@
graag
griekse
pioni@@
getui@@
tien
myself
skrif@@
benewens
bou@@
sj@@
slegte
finally
gradu@@
south
solu@@
digers
awake
siel
six
ewig
soe@@
mani@@
vroeër
"selfs
enter@@
tives
thousands
shing
ene@@
hoewel
kul@@
spro@@
uik
date
dy
ug
sear@@
europe@@
male
eu@@
pped
herin@@
beteken@@
posed
predikingswerk
byna
teac@@
tale
bedien@@
ler
koer@@
kli@@
gee@@
babyl@@
regi@@
mental
augu@@
milit@@
alleen
ski@@
medical
accu@@
waarsku
hard@@
oog
bekle@@
la
families
aaf
assu@@
dani@@
verwy@@
standaar@@
wea@@
wei@@
daily
h’s
rais@@
"now
sse@@
voorkom
rek
16@@
eenvoudig
geboor@@
promi@@
progre@@
pil@@
stop
destro@@
doende
fra@@
km
"paul
tempel
ond@@
500
fish
"those
i’@@
estab@@
enough
sionele
dge
ate@@
aling
bestuur@@
ee@@
international
egy@@
ssions
verhe@@
seuns
tory
profeet
verskyn
verskil
skoo@@
roman
late
"vir
stant
"van
sop@@
fulf@@
ssie
mis
slaan
cru@@
gevangen@@
explains
professor
prys
air
recor@@
gereeld
onderwerp
gevaar@@
beski@@
ondersk@@
toep@@
bie@@
var@@
versa@@
afge@@
tans
ondervinding
ksie
onk@@
gelaat
raai
gesondheid
steek
sa
itself
susters
ool
gou
radi@@
slo@@
bron
omgew@@
gebre@@
gevalle
nab@@
verstand
surpri@@
jewish
kil@@
dr
freedom
super@@
hebrew
ywer@@
warm
plant
"ander
que
noem
co
verlede
fron@@
lyn
sym@@
national
popul@@
hy@@
ëls
enigste
"net
honder@@
geestelik
eeue
bil@@
byeenkoms
sexual
weë
getuig
encyclo@@
contribu@@
bethel
africa
gero@@
sely
ign
tab@@
tains
skape
compare
getrek
neu@@
wandel
verskeie
span
member
beha@@
kel@@
stress
ghede
gedagtes
omstandighede
itali@@
stryd
vriend
igheid
aak
bepro@@
gelyke
hall
seksu@@
asook
devo@@
ondervind
mea@@
boeke
geweld
"al
kwe@@
almost
sedert
joodse
skepp@@
gam@@
suster
ssings
hours
aam
mal
heers
usually
moenie
bladsye
animals
aller@@
klein@@
toel@@
terri@@
rein
studeer
actually
delinge
lug@@
une
ment@@
kker
para@@
"dan
bin@@
verkeerd
haat
stern
april
bloot
paal
volgelinge
spy@@
noor@@
gemeenskap
kommuni@@
pogings
nega@@
hebree@@
sn@@
deling
plan
voorneme
alk
everyone
josep@@
rs
gelyk
besig
stof
1,@@
betaal
shed
daniel
"rather
violence
acti@@
0,000
thede
ante
gevolge
"consider
beoefen
bei
stiese
enis
vaar
cle
paradys
apo@@
byeen@@
worldwide
mur@@
gawe
what@@
ko
tydse
regverdige
gun@@
solom@@
geïn@@
wyn
sper@@
histor@@
heerskappy
waardeer
betref
"vandag
colle@@
art
loë
196@@
pursu@@
nut@@
sigte
pared
telike
youths
send
ruk
geluk
ounds
aangaande
"jehovah’s
glad
pyn
voorreg
alge@@
"today
meld
gebrui@@
sk
aled
vereis
eenheid
eien@@
spring
seën@@
alle@@
presi@@
seem
row
vir@@
hebreërs
fas@@
persecu@@
hol
apostels
17@@
getting
sedelike
tief
"from
hebrews
dying
cks
displa@@
least
bewus
newspap@@
geskep
laa@@
begrip
geleë
learning
ask@@
nifi@@
getuie
moed
hang
stadi@@
kwaad
artikels
addi@@
period
swaar@@
bevorder
spanning
skrywer
throughout
distri@@
lished
vrien@@
gerig
impre@@
gebiede
dies
september
profesie
"their
birth
centuries
dui
"ná
grap@@
sier
verke@@
eventually
coura@@
pol@@
timoteus
gemeentes
bal
beho@@
amerikaanse
ased
200
parts
herstel
chemi@@
duiwel
cat@@
pion@@
bewe@@
secre@@
baat
tus
verseker
salomo
wit
invloed
korintiërs
nag
gesalfde
maria
b.@@
berei
sme
published
waardering
bestudeer
stil@@
soorte
esc@@
og@@
denheid
vinnig
huise
geno@@
vro@@
single
totdat
juda@@
tent
waarsk@@
mira@@
toestand
lewen@@
likse
lond@@
godsdiens@@
opstanding
behoeftes
new@@
bloo@@
gooi
world’s
buite
ontwaak
russi@@
homself
aanbid
respek
dj@@
ima@@
fde
cir@@
matthe@@
skappe
gla@@
secu@@
studen@@
inf@@
skap@@
betre@@
ator
vernie@@
wag@@
geleen@@
bla@@
inti@@
rou@@
uns
artic@@
tik@@
gesl@@
bed@@
thi@@
aanbi@@
besker@@
isa@@
oefen
daarom
gesond@@
bap@@
wêre@@
ligg@@
gings
ske@@
handel
king@@
suffer@@
vrou@@
emi@@
sul@@
stry
kne@@
rome@@
fe
deringe
gely@@
expla@@
mel
koninkryk@@
ontwikk@@
xt
gewel@@
cked
clu@@
respe@@
enig@@
sef
gse
behoef@@
geskie@@
gehoor@@
log
toek@@
ligting
lui@@
wens
gram
tw@@
tis@@
„
jap@@
christi@@
twe@@
dissi@@
besl@@
spiri@@
ffi@@
rys
moont@@
chur@@
conven@@
veroor@@
servan@@
there@@
gelukk@@
spea@@
vri@@
sus
eni@@
infor@@
moder@@
jam@@
spel
uite
nment
wyf@@
tings
mek@@
begeer@@
verl@@
weten@@
ky@@
ye@@
eenvou@@
wikk@@
ority
cent
uur@@
bene@@
peop@@
stry@@
hosp@@
skry@@
illu@@
voed@@
jer@@
purpo@@
kat@@
witne@@
possi@@
inthi@@
israeli@@
quali@@
issu@@
vreug@@
devolle
oef@@
contro@@
sour@@
heer
sci@@
werking
inking
condu@@
awa@@
mbers
uly
ries
scri@@
woor@@
vermo@@
timo@@
orig@@
kilo@@
gesal@@
erd
sende
predi@@
gevolg@@
organ@@
ugh@@
watch@@
missi@@
denti@@
ondervin@@
enie
dise@@
whe@@
gereg@@
tigheid
aande
titude
ano@@
volmaa@@
eded
dou@@
stem@@
davi@@
lowing
oura@@
rong
tten
year@@
gewoon@@
vinni@@
stelike
abili@@
usu@@
baar@@
wagtor@@
jong@@
berei@@
tuie
ssa@@
ught
justi@@
swerk
kwaa@@
verhou@@
jar@@
dissip@@
gene
knowle@@
bood@@
sione@@
gevan@@
sexu@@
wels
vity
gemeen
plaa@@
catho@@
titu@@
mation
gaande
voorne@@
seë@@
rom
joh@@
dighede
sep@@
geme@@
eis
neer
gge@@
rop
ewi@@
parad@@
konink@@
nes
griek@@
waak
vra@@
socie@@
isra@@
tribu@@
oore@@
skapp@@
kaanse
abo@@
kato@@
soor@@
veer
bybe@@
soo@@
"y@@
abraha@@
ttle
seder@@
teken@@
inted
tot@@
questi@@
gie@@
verenig@@
exer@@
troue
selfde
deer
nasion@@
beer
spiritu@@
geho@@
skappy
messa@@
mige
bedry@@
muni@@
ffer@@
accor@@
soon@@
gelu@@
abra@@
power@@
beskou@@
jeho@@
secon@@
raag
onth@@
gebr@@
huwe@@
ynlik
wle@@
rou
êre@@
hemel@@
gedag@@
bege@@
suc@@
spreu@@
johan@@
kas
tioned
milli@@
sasie
vine
tj@@
austra@@
aga@@
vroe@@
eindelik
nece@@
ssor
vou@@
denis
free@@
tries
indivi@@
daagse
tuss@@
liete
groo@@
prediking@@
even@@
koninkry@@
petr@@
keen
cum@@
▫
chri@@
geda@@
jerusal@@
ample
trouens
trent
congrega@@
vorder
blad@@
clear@@
congre@@
betro@@
gaz@@
vail@@
wro@@
evan@@
ïn@@
yor@@
xu@@
lieke
ulle
revel@@
♦
specially
bethe@@
begri@@
daw@@
proble@@
gevoel@@
getwyf@@
”@@
corinthi@@
standighede
fore
unti@@
❑
salom@@
.e
◯
gods@@
‚
urende
pher@@
verskill@@
‐
ḥ@@
biede
ril
volgen@@
venly
▶
openbar@@
dise
miljo@@
allen@@
❏
resur@@
sdom
bestu@@
g.@@
■
jehova@@
ş@@
gelinge
centu@@
wyl
toge@@
ð@@
sye
eeu@@
israe@@
ς
stels
ency@@
hebre@@
ε@@
ō@@
through@@
miski@@
ewel
antwoor@@
ø
▵
š
▿
ό@@
ă@@
verbs
them@@
θ@@
recog@@
·
ι@@
⁠@@
œ@@
teus
ň
č
spap@@
ㅇ
¡
̩@@
ㅅ
ľ@@
ㅁ
σ@@
ㄱ
ş
ř@@
ω
vile@@
×
ŏ@@
ο@@
ㅗ
ν@@
γ@@
ὁ
ㅏ
κ@@
artik@@
diffi@@
ἰ@@
ν
ㄴ
а@@
ń
➤
¿
ĕ@@
ώ@@
ㅣ
ė
в@@
א
π
¥
π@@
τ@@
septe@@
schoo@@
ì
ṣ@@
н@@
ρ@@
ֹ
λ@@
р@@
п@@
÷
⇧
ㅡ
›
ㅓ
א@@
gevol@@
ל@@
ţ@@
ύ@@
ְ@@
μ
ď@@
ㄹ
и@@
δ@@
☒
ô
α
ň@@
ś
ŭ@@
oodse
δ
목
ㅛ
ㅜ
ㅠ
ǔ
ㅔ
소
상
곰
사@@
ㅑ
랑
usal@@
б@@
ж@@
ю
м
м@@
ㅕ
ㅎ
о@@
ʽ
ć@@
ɔ@@
▴
ő
⇦
υ@@
ㅍ
ž
<
ㄷ
ㅂ
ㅈ
ㅊ
ㅋ
ㅌ
о
є@@
е@@
η@@
ὅ
с@@
đ@@
ά@@
α@@
ă
ᾶ@@
υ
ק@@
ד
ç
ָ@@
ֹ@@
û
ὅ@@
ę
ἄ@@
ǒ@@
т@@
и
х@@
і@@
д@@
נ
ȧ@@
ů
і
ט
ə@@
ם
ė@@
ŕ
ש
ť@@
ṇ@@
·@@
̈@@
§
ז@@
inst
˜
;@@
ḥ
saja
በ@@
የ@@
"
ከ@@
“@@
ለ@@
ይ@@
ያ@@
ን
ላይ
ም
አ@@
መ@@
ት
ል@@
ወደ
ታ@@
።
ት@@
ተ@@
ማ@@
ሳ@@
ና
ራ@@
ን@@
፤
,+
.+
ስ@@
የሚ@@
ባ@@
ላ@@
ብ@@
ሁሉ
ና@@
ሰ@@
ም@@
ው
፣
ረ@@
።+
."
ደ@@
ቀ@@
ነ@@
ጠ@@
ሰው
ይሖዋ
እንዲህ
ግ@@
እ@@
ጥ@@
ል
.+"
ድ@@
ህ
ዳ@@
ር@@
ቅ@@
ው@@
ጊዜ
ር
s,
ውን
ገ@@
ፈ@@
ፍ@@
ካ@@
ስ
ግን
ከዚያም
የተ@@
ጋር
ቃ@@
ነገር
ክ@@
ዘ@@
ጣ@@
በት
ወ@@
በመ@@
ዋ@@
ጋ@@
ንም
አምላክ
ች@@
ቸው
ቆ@@
ሃ@@
እንዲ@@
ብ
ቁ@@
ቱ
ሰዎች
ሲ@@
ልጅ
ሞ@@
ንና
እንዲሁም
አል@@
፤+
ለመ@@
ሮ@@
ፋ@@
አንድ
ል።+
አይ@@
ዛ@@
ቤ@@
ሽ@@
ሩ
ል።
ዝ@@
ቢ@@
ሉ@@
ድ
ሩ@@
አስ@@
ውስጥ
፣@@
እኔ
ሸ@@
ዎች
ች
ቤት
ህ@@
ችሁ
ል፤
ቅ
እንደ
ትን
፤@@
መካከል
ምድር
እንደ@@
ነበር።
እሱም
ኩ@@
ይህን
ይ
d,
ሴ@@
በተ@@
ንጉሥ
ሆይ፣
በዚህ
አት@@
said:
ኝ@@
ታ
.”
ሉ
ሊ@@
እሱ
ፊት
ኝ
ጉ@@
s.
ለማ@@
ም።
ህን
ፍ
የሚያ@@
ቃል
ኖ@@
ቻ@@
ቀን
*+
በት@@
ጎ@@
እነሱም
ሻ@@
ቸውን
ቶ
በሚ@@
ችን
ን፣
ሪ@@
ጥ
jehovah@@
፣+
ዶ@@
ቱን
“‘@@
የመ@@
ሽ
,and
ን+
ሕ@@
አንተ
እን@@
ወጣ@@
ኛ@@
ኑ@@
ሎ@@
በማ@@
፦
ራ
ሁ@@
ይህ
ከተ@@
ሙ@@
ወንዶች
ድረስ
ዱ@@
በኋላ
ሱ@@
t,
you,
,"
በእ@@
ቡ@@
s.+
ቶ@@
በመሆኑም
.”+
ወደ@@
ጨ@@
ውም
ነት
ልጆች
ጸ@@
በሙሉ
እንዳ@@
ያስ@@
ሆኖም
የአ@@
የማ@@
ደግሞ
ምን
ነው።
ም።+
ል፤@@
ደግሞም
me,
አለ@@
ኑ
ትና
ቸው@@
ለሁ@@
ለው
ቱ@@
ትም
ስለ@@
ዓ@@
ኛ
አላ@@
ዕ@@
?+
ችሁ@@
,*
ፊ@@
ወይም
?”
ቹ
እስከ
ጭ@@
"10
ሉ።
፤+@@
ሆነ
ነው።+
ኤ@@
ʹa·@@
"11
y,
ስለዚህ
ሬ@@
ቦ@@
"12
eʹ@@
"13
ሰማ@@
ኮ@@
አን@@
,+@@
ጡ@@
ማ
jehovah,
ቡ
ገባ@@
ጌታ
es,
ዮ@@
ቋ@@
ውያን
ላ
;+@@
.”"
መጣ@@
ነው@@
"14
ደር@@
ቀር@@
።”
ቸዋ@@
ደረ@@
ስለ
ጽ@@
israel@@
በይሖዋ
ጻ@@
ያ
ረው
ዳዊት
ሆ@@
በሰ@@
ክ
"15
በአ@@
ምክንያቱም
ዩ@@
ነበር፤
እንደሚ@@
ከመ@@
የም@@
ኛው
የተነሳ
ሶ@@
"16
ይወ@@
ወር@@
"17
በላ@@
ሌ@@
የምት@@
ን*
,+"
መለ@@
እነዚህ
ት።
ብዙ
ላችሁ@@
ና+
በዚያ
"2
aʹ@@
እናንተ
ኪ@@
።”+
እነሱ
መል@@
ለሁ።+
ሉ።+
ኤል@@
እየ@@
ለሁ።
ም፤
ʹah
ዩ
ሲል
ለሁ፤
"3
"18
"4
አለው።
day@@
.”+"
ሰጠ@@
ፉ@@
ነበር።+
የእስራኤል
እስ@@
him:
e,
ሚ@@
him,
"7
መንገድ
"9
ቸው።
"19
"6
"8
"20
ሜ@@
አው@@
"5
ነገሮች
;+
ሱ
እኔም
ቶች
ጃ@@
"21
ነገ@@
ስም
ው።
እያ@@
ረ
ቹን
,+and
ት+
ኢየሱስ
ንጉሡ
ጫ@@
ብር@@
በል@@
ሐ@@
ተው
በረ@@
ሥራ@@
ምንም
ed,
ዊ
ገደ@@
ለህ@@
ወሰ@@
ሠራ@@
ችኋ@@
ዓመት
a·@@
ቦታ
ቷ@@
ት*
አባ@@
ይኸውም
*@@
ሕዝቡ
ጌ@@
ing,
!”
"4@@
ዎች@@
ቶች@@
them,
ሙ
ለ
"22
መስ@@
ቸውም
ም+
thing@@
ቸው፤
ሄ@@
ያለ@@
በር@@
ጡ
ናገ@@
“የ@@
ያስ
እና
ያል@@
ችሁን
ዙ@@
ቼ
ll@@
ላቸው
እጅግ
ከፍ
ከዚህ
ቁ
መባ
ከሚ@@
ቴ
ት፣
ንን
s,+
አም@@
ል፤+
እና@@
.*
መን@@
ቱም
ል፤+@@
d.
ሆነ@@
ሠ@@
ማን
ሁሉ@@
እስራኤላውያን
ቸው።+
people@@
ባቸው
አለው፦
ስተ@@
ሆኖ
ሉ፤
“i
የይሖዋ
በደ@@
በየ@@
ይሆና@@
s+
ሪያ@@
"23
ቅር@@
ሪ
ፈጽ@@
ነበር@@
ለች@@
እንዲያ@@
ሮች
!@@
ትህ
ልጆ@@
ዝ
ለት
th,
ሳ
ዎቹ
ሕዝብ
አገ@@
ት፤
መጠ@@
ሴት
ጠራ@@
ሆኑ
ቂ@@
’+
የቀ@@
ፈል@@
”+
h,
ኃጢአት
ጅ@@
"24
ይሁንና
ለው@@
nes@@
ፈጸ@@
ወንድሞ@@
የሆነው
አሳ@@
?@@
ሯ@@
በቀ@@
ሏ@@
አብ@@
ቴ@@
!+
ሆነው
"25
ዳ
judah
them:
ለይሖዋ
ቅዱስ
ʹe·@@
.*+
(@@
መሠረት
ደስ
በታ@@
ተቀ@@
ልና@@
ኢ@@
ሩት
ሻ
ዱ
እንኳ
ይሖዋን
ሉት
ያለው
ጣ
ሰው@@
m,
ነው
መጡ@@
አሁን
"26
ጊ@@
ʹi·@@
ልብ@@
ሆን@@
ውኃ
father@@
ለሚ@@
ጓ@@
s."
god,
ዘንድ
ሹ@@
ባ
s*
ት።+
ዎ@@
ላለ@@
በፊ@@
ይላል
በተጨማሪም
ces@@
ሁለት
መባ@@
ምን@@
ነው፤
ይሖዋ@@
ጠብ@@
"27
ወንድ@@
it,
place@@
s,@@
ነው?
ዓመ@@
እኛ
les@@
ድን@@
ሮ
ሥ@@
ነሳ@@
አታ@@
ተኛ
ልም
ብሎ
፣+@@
የለም@@
offering
ምድ@@
ከአ@@
ll
ኸ@@
በር
እንጂ
በም@@
ቹ@@
ታው@@
ነበሩ።
ወዳ@@
ሙሴ
የሆነውን
ብቻ
ታቸው
ንቀ@@
ፈራ@@
saying:
እር@@
ራሳ@@
ሥራ
ኔ@@
ቤተሰ@@
ችና
ነኝ@@
ዚ@@
ከብ@@
ያው@@
ሾ@@
ገኘው
ሎ
ሄድ
ጠላ@@
ጋ
ሞት
ጀ@@
ይህም
ባለ@@
ፈር@@
ይላል፦
ህም
።*
ግብ@@
ወስ@@
+@@
ከእሱ
የት
ቀረ@@
ኦ@@
ዴ@@
ድር@@
ስን
ቻቸው
አደረገ@@
በስ@@
·a·@@
መለከ@@
ሰጣ@@
ጉ
ቢያ@@
ምር@@
“በ@@
በኩል
ያለውን
ዊ@@
ከፍ@@
ጮ@@
life@@
ተሰ@@
ክፉ
ቄ@@
swor@@
"28
ስፍራ
ሳይ@@
ላችሁ
ጆ@@
ግ
ለን@@
ሰጥ@@
ተዋ@@
ይገ@@
አገልጋዮ@@
look!
ሊያ@@
declares
አገልጋ@@
ቦታ@@
ምድር@@
ሂ@@
ይሖዋም
ስማ@@
;"
"5@@
ሌላ
እንድት@@
ሪያ
ዬ
የሰ@@
በራ@@
ርያ@@
ተመል@@
ልጆች@@
መር@@
ሁሉም
ዋ
ስላ@@
የባ@@
jerusalem@@
“you
ይላ@@
however,
ኢየሩሳሌም
+"
ጥፋት
ʹna@@
እጅ
አምላክ@@
እየተ@@
ከነ@@
je·ho@@
priest
cities
bʹ@@
ከተማ@@
ታላቅ
ፎ@@
ምት@@
ቀድ@@
ሰ
ሆን
ተነ@@
ላከ@@
"29
ው፤
david@@
አያ@@
nation@@
ኢዮ@@
ልጅ@@
ሉ፤@@
አንተም
ጦ@@
haʹ@@
።*+
ም*
u·@@
ኩ
ኳ@@
ʹah,
ሺ@@
ይጠ@@
ውያ@@
ኑን
በማለት
በግ@@
ሰብ@@
ብሔራት
ይልቅ
ሴቶች
ትን@@
ሆና@@
አድርጎ
ዓይ@@
መልካም
ሕይወ@@
me.
ተኛው
እንስ@@
ገኘ@@
ለም@@
on,
ʹa@@
በእስራኤል
ሁለ@@
መረ@@
jehovah.
*+@@
ቃ
ይቀ@@
አንዱ
ፋ
ቹም
ኞ@@
ቤተ
የይሖዋን
ከዚያ
ያው
አይደለም@@
አላቸው፦
ግን@@
ያለ
s.+"
ደረግ@@
ከማ@@
ght@@
መጥ@@
ዶ
እንዴት
ታላ@@
es.
ስት@@
ጥሩ
ፈረ@@
er,
ለሁ፤@@
እግ@@
የለ@@
ነበ@@
ከተማ
ታችሁ
ወረ@@
e·li@@
ሁ
ሙሉ
offering@@
ሬ
ንገ@@
ከሆነ
"30
ሟ@@
ኖር
ች፣
ጊዜ@@
israel,
ሩን
ታማኝ
ቀደ@@
ዳን
.”@@
የእ@@
የወይን
sovereign
ዓይነት
ከተማዋ
አጥ@@
"31
እንግዲህ
ተገ@@
ገለ@@
ሣ@@
ይሰ@@
ሉዓላዊው
ቆ
ምና@@
መንገ@@
ኬ@@
ወን@@
ስም@@
says:
ሌሎች
an,
down@@
በጎ@@
seven
ባለው
ሦስት
ጉዳ@@
ጌታ@@
ክን@@
pries@@
አዳ@@
.’@@
ነግ@@
በእሱ
d.+
egypt@@
priests
ዘመን
ረጋ@@
ከሰ@@
እኔን
ነበረ@@
sea@@
jes@@
“this
ቀን@@
ፉ
ብት@@
አንስቶ
ves@@
me.+
ልቅ
ልክ
ሰማይ
ኞች
ፈው
ች።
ልኝ@@
በሕይወት
ገቡ@@
ደቀ
ተመለ@@
burnt
ኮ
ʹi@@
ቦ
መው
የሆነ
ረት
ማንም
ተ
ሄደ@@
ውንም
የሚያስ@@
ኢዮዓ@@
tes@@
ከው
ድንጋ@@
zi@@
ከተሞች
ናቸው@@
ር+
ሞ
ራት
ወለደ@@
him.
በስተ
ity@@
አምላክን
ባት
you.
ፌ@@
እነዚህን
ሜ
ቼ@@
ለሁ፤+
ጠፋ@@
ሮን
dea@@
ʹra@@
fire
man,
ቸው፦
ም፤@@
ታዲያ
ው።+
አለቆ@@
"32
አድር@@
ከት@@
ገብ@@
ted@@
ውያንን
ታደ@@
ፈለ@@
ድም@@
ከእነሱ
ዲ@@
ይኖራ@@
ቀጠ@@
ሰባት
እንደሆነ
አንቺ
ኤል
ከበ@@
ሥር
እንደተ@@
ዋን
zʹ@@
ቤቱ
የምታ@@
saul
ይችላ@@
ችል
foo@@
ወጥ@@
ውኃ@@
ከተሞ@@
ያዕቆብ
them.
ጾ@@
ለምንድን
መሬት
ልጅ፣
ችም
mountain@@
ኢያ@@
በቅ@@
የሌ@@
እስኪ@@
oʹ@@
አድ@@
አሉ@@
brother@@
አምላክህ
ራቸው
ክፉ@@
ጠር@@
commanded
በኢየሩሳሌም
ion
አደርጋ@@
ሚስ@@
struck
ce,
አለ።
ማንኛውም
ደ
ለዘላለም
“ከ@@
ቶቻ@@
ቀበ@@
ዘን@@
ዛሬ
ሴ
እናንተም
ጠው
?”+
way@@
ቂ
ዊው
ተና@@
ምስ@@
ያደርጋ@@
ፈጽሞ
እስራኤል
ውና
መንፈስ
it.
ሳኦል
በጣም
እነ@@
ልብ
ዛት
እም@@
በለ@@
መብ@@
የታ@@
ተጠ@@
“the
ዎቹ@@
ዎችን
"33
ሄዳ@@
ዞ@@
አለ፦
ም፣
መና@@
ይዘ@@
ነህ@@
,*+
ዶች
በላይ
የማይ@@
ሄዱ@@
ʹah@@
ከእኔ
ል”
በመካከ@@
king,
daughter
ዘዘ@@
ቴን
ድን
ክብር
ብር
say,
ኋ@@
አቅ@@
ይሁን
እውነተኛው
ክል@@
ኘ@@
you.+
mes@@
ገል@@
እሷም
በዚያም
እስራኤላ@@
lʹ@@
ሲያ@@
pha@@
other@@
ተደ@@
ታት
ል?
more@@
እንድ@@
sheʹ@@
ites@@
bles@@
እሱን
ቁጣ@@
ዘመ@@
us,
ሱን
ነው?”
day,
ድምፅ
ሦ@@
"34
ዛ
ያህ
ቅዱ@@
ቀው
ላት
እነሆ፣
chief@@
ድንጋይ
whoever
የይሁዳ
ዔ@@
ቲ@@
የሠራዊት
የበ@@
በትን
ይሁዳ
ባቸው@@
አቢ@@
ዋል።
ቀ
ሩ።
ወለ@@
fire@@
ፍር@@
altar@@
ሳለ
ክርስቶስ
egypt
ደርግ@@
ኑም
አላቸው።
ዎቹን
ል+
ብለው
ዖ@@
መቅ@@
ስጠ@@
በው
ራው
ብን
በምት@@
ነበሩ@@
መሰ@@
ነ
ዚያ
ዳር@@
ኅ@@
ቶቹ
ወደሚ@@
ደም
ድንኳኑ
ልህ
ፍጥ@@
light@@
ዘጋ@@
ቿ@@
ባል
ድረ@@
ጽ
ሰፈ@@
ጅ
ከለ@@
ing*
ነገድ
ሚ
ስና
አጠ@@
ክንድ
በዓ@@
በጥ@@
ከአንተ
የኤ@@
ወድ@@
ወንድ
ኝ።
ክብ@@
በምድር
away@@
በኋላም
ት፦
ፍልስጤማ@@
ናገር
ስ+
ያሉት
ብረት
grain
ሙት
መታ@@
ሷ@@
መንግሥ@@
ሰማያት
በእኔ
death@@
አጠገብ
ጧ@@
አስተ@@
ቷ
ን፣+
የተናገ@@
ጁ
tribe
ሙሴን
ኙ@@
ገለግ@@
ር፣
ባል@@
ረዳ@@
ሰዎች@@
silver
በእርግጥ
ካህኑ
ይሆናል።
,*@@
አለቃ
ነው?+
ነውና@@
ችህ
ፅ@@
ችል@@
aaron
judah@@
ይመጣ@@
"35
law@@
righteous@@
surely
igh@@
remain@@
:+
hʹ@@
ላይ@@
y.
forever@@
ልሃ@@
ስታ@@
እያንዳንዱ
በሉ@@
“what
ንጹሕ
ዘ
cut
“if
ሲሆን
first@@
mighty
!’
ል።”+
remo@@
የተሠ@@
በድ@@
ቤ
e·@@
ላቸው@@
ወገ@@
ነቢያ@@
ሶ
ሰለሞን
ገና
anima@@
ሂድ@@
ችንን
ጣት
መልሶ
ኃጢአ@@
ሕዝ@@
ed.
ጡት
ዓም@@
ና*
valle@@
ለብ@@
ናቸው።
አንተን
ites,
የሠራ@@
እሳት
ጥር
ለህ፤
ሕዝቡን
wn@@
መሥዋዕት
uʹ@@
ያሉ
ልት@@
አር@@
camp@@
ተቆ@@
መ
መጣ
ለህ።
ነገሥታት
,’
አለው።+
አገር
ለምን
ገኝ
him."
ቀጥ@@
ድንኳ@@
የሚኖ@@
ራሱን
ዕቃ@@
ፈርዖን
ኛውም
ሕግ
በእሳት
ፍሬ@@
እንዳይ@@
ness@@
jor@@
አሰ@@
ስሙ@@
please,
pie@@
army
ጩ@@
ጃ
አራ@@
ስት
ʹi·a@@
ይሖዋ።
ጦ
ም፤+
ልጁ
ዚህም
ዙ
መሬ@@
በእነሱ
+and
እጅ@@
chief
ከና@@
ይሁን@@
ባር@@
ህ፣
ተራ@@
ion@@
አማካኝነት
ራሱ
ነጋ@@
solʹo·mon
አበ@@
ልን
ቦች
ሙሴ@@
ሠረገ@@
ction@@
ጭ
ሽን
ለም
ፍራ@@
ደርግ
በፊት
ሥጋ
ቅል@@
ምግብ
ቤት@@
refu@@
ገኛ@@
ካህናት
አየ@@
ክል
ም”
ኃይ@@
ሕይወት
ses@@
ዱን
ፍት@@
ምራ@@
፦+
ታቸውን
ኖች
shou@@
በደል
ውሰ@@
በዳ
belong@@
ያያ@@
sound
rejoi@@
ሀብ@@
የሰው
“ይሖዋ
?’
inhabitants
king’s
ጁ@@
carry
l·@@
የሆኑ
pay
t.
ለህ።+
ዬን
በውስ@@
ሌዋውያ@@
ያህል
ካህና@@
mother@@
ኪዳን
ገነ@@
·it@@
ሽማግሌ@@
ልና
በዚያን
genera@@
ዘር
ተመ@@
ነው”
ወርቅ
ይኖ@@
shu@@
አልነበረ@@
ተናገ@@
ይገባ@@
ሌሊት
people,
thro@@
ፀ@@
altar
ጉድጓ@@
sword
በአንተ
ርስት
guil@@
ትእዛዝ
ሆኑ@@
የተወሰ@@
se,
bow@@
ካል@@
ጠየ@@
ስለነበር
መጥፎ
dd@@
boʹa@@
እውነ@@
ናት
bit@@
ውስ@@
?"
አድርገ@@
አባቶቻ@@
አካ@@
አይደ@@
ጋት
ቸ@@
ጨር@@
ባረ@@
ብረ@@
"36
el,
son,
ጀመ@@
እንዲህም
የአምላክ
ያሉትን
ዬ@@
ህና
ልባ@@
ing.
በይሁዳ
ሩ፤
ching
jacob@@
·ites@@
ts,
ስጦ@@
የአባ@@
jacob
ገዢ@@
afra@@
.’+
.’
ark
ሠራዊት
ጨረ@@
)@@
አመጣ@@
ኢየሩሳሌ@@
.*+"
ስለሆነም
።”@@
ኢየሱስም
up,
ለሁ”
ገድ@@
ድረግ
ሱም
ከግብፅ
ክፍ@@
41
forefather@@
ገኝ@@
armi@@
ዋል።+
አና@@
ህንም
ttle@@
,+but
ለሁ፤+@@
ጫ
ጢ@@
ጠ
ግብፅ
ትእዛ@@
ቀም@@
አንድም
ዓት
ውያንም
ዛፍ
ከእ@@
eʹphra·@@
ከባ@@
·ites
gathered
”"
ቢንያ@@
fiel@@
ምና
በቃ@@
አስጸያፊ
መሠዊ@@
ነው፤@@
እነሱን
የግ@@
እውነት
ካ
ው+
ድቃ@@
ራስ@@
ወግ@@
jehovah.+
እባክህ
voice
አንበ@@
in,
ከደ@@
save
deser@@
ሳን
good@@
ቻቸውን
ለማግኘት
ከእናንተ
ፈጸም
yes,
him.+
ሥልጣ@@
ር*
ወቅ@@
ተነስቶ
ከን@@
ቅና
ሪዎች
ለቀ@@
w,
ance@@
ችው
ቧ@@
ሰም@@
ል።”
n,
መግ@@
fall
አሮ@@
name@@
መንግሥት
them.+
ምም
ውጭ
ጠባ@@
ወዲያውኑ
,but
?”"
ምድሪቱ
e.
ይፈ@@
ዚያ@@
ባለ
ጹ@@
ሕዝቦች
ዮሴፍ
‘i
ምጃ
men,
ጠቦ@@
ል፣
ሳኦ@@
ሚስት
ሩም
ያሳ@@
me·@@
ቼን
ደረገ@@
,”
ሰውየው
አሁንም
መካከ@@
ሠራዊ@@
,for
re·@@
“ይህ
ተቀም@@
wife@@
ኩት
·o·@@
ሰማ
ሰላ@@
እረ@@
ንዳ@@
ፍርድ
ጀመር@@
ፍሬ
ሠር@@
ግባ@@
ተር@@
ሎች
ራም
የዘ@@
ወር
lls
42
ፎች
offspr@@
ሜን
y*
i,
built
ለታ@@
mouth
አንዳን@@
ጳውሎ@@
ተኛ@@
ክር
ይሁዳ@@
መራ@@
ንስ
ones@@
አምላካ@@
ይህ@@
ትክ@@
ከፊ@@
አይሁዳውያን
ትሆና@@
ሳት
ሩትን
cher@@
chario@@
።’+
ሕዝብ@@
drin@@
ዚህ
ኔ
መሥዋዕ@@
መንፈ@@
ሌላ@@
አምላካችን
ብርሃን
night@@
returned
ጽድቅ
አብርሃ@@
አባት
ሰይ@@
ly,
የነበሩት
ወጣ
ሰለ@@
ቅም
dwelling
ሞገስ
ሰጠው
front
st,
saying:"
sabba@@
እኛ@@
ሞተ@@
this,
አውራ
concerning
bread
ዘይት
ጊዜም
ጠይ@@
መቃ@@
tter
ሄድ@@
ስታ
ደን@@
ስን@@
ይዞ
lev@@
clou@@
መኳንን@@
ried
ክር@@
ደርስ@@
ዜ@@
ጌታዬ
ደው
ባሪያ@@
ሉ፤+
ያደረገ@@
ዘን
therefore,
የመጣ@@
one,
ዎችና
ዟ@@
“do
ግር@@
።@@
ወጡ@@
ሰን@@
ኝ፤
ትንም
ሌሎ@@
dark@@
አማ@@
በኤ@@
ተራራ@@
levites
ም?
ኃይል
ʹab
የው
ለውን
ሁኔ@@
je·@@
43
ባቸዋ@@
ሸክ@@
servant@@
ዳግመኛ
ሰዎችን
ቻ
ያላ@@
ጀመሪያ
jaʹ@@
ቢያ
pea@@
ገዛ@@
ጠጅ
ቃጠ@@
"37
ይታ@@
ስቱ
ፍየ@@
listen@@
።’
ʹla@@
joshua
sca@@
k,
ቸውንም
ናቸው።+
ትህን
ጴጥሮ@@
ነፍ@@
ውር@@
መልእክ@@
well@@
d."
saul@@
በአንድ
ከፈ@@
resid@@
ed.+
ርኩስ
distres@@
አለች@@
waters
ላችሁ፤
አዎ፣
ቀር
cubits
አደ@@
ያዘ@@
ፈቃደ@@
say:
ርያ
inheritance
y.+
የ
lor@@
phʹ@@
ሸለቆ@@
ኝነት
fell
ኒ@@
ቻችሁ
እንደማ@@
በግብፅ
ስለሆነ
በ
gate@@
laid
then,
himself@@
“እኔ
forefathers
እህ@@
የሚቃጠል
አሳል@@
ተው@@
ፏ@@
ታውቃ@@
ቿ
ጀመረ@@
ʹsh@@
ያዕቆ@@
ላም
የሆኑት
ንጉሡን
selves@@
pastu@@
እስራኤ@@
እናንተ@@
lives@@
lle@@
ግሥ@@
ʹba@@
"38
ኗ@@
ሉን
ዳን@@
donke@@
ተኞ@@
ሎም
ርሳ@@
ሦስተ@@
ሌላው
ታስ@@
ቁጣ
ነበሩ፤
together@@
ዝም
gate
word@@
said,
ላችሁ።+
spir@@
posses@@
የገዛ
vision@@
ከንቱ
አሉት።
cry
አክ@@
pass
phi·lisʹtin@@
ሰይፍ
ቡን
በሆነው
pharʹaoh
beth@@
ስ፣
ጥበበ@@
calam@@
lord,
ዮች
እህል
አሞ@@
you,+
ወንዶ@@
ሆኑት
ሳለ@@
ተህ
consu@@
ጥበብ
ፈር
ሰዎችም
ማስተዋ@@
ሻገ@@
አባቱ
ርኩ@@
ነው፤+
ተብሎ
region
gold@@
ትኩ@@
የነበ@@
ጦርነት
ጻድቅ
መና
አቀረ@@
courty@@
ld,
ዓይኖ@@
ፋት
d,+
መጽሐ@@
የተመ@@
ንጉሥ@@
ዝና@@
ለእናንተ
this@@
ች፤
ይሆናል።+
ፃ@@
አሳልፎ
"6@@
ይቆ@@
መጥተው
ልብስ
ሰብ
ves,
daughter@@
sei@@
መድ
ምድረ
ኝ።+
lling
ች+
ጉት
"39
መው@@
ወይስ
ልጆቹ
ሉ፤+@@
ha·@@
የሆኑ@@
ሰማያ@@
ብሔራ@@
.*"
ሊባ@@
የተነ@@
spoken
brothers,
ላችሁ።
house,
judah,
ተማ@@
ብርሃ@@
ለት@@
ብም
benjam@@
ገኙት
ረገ@@
cept
በአምላክ
ምር
ችሁት
ma·nasʹse@@
ሳሙ@@
ለበት
!”+
deʹ@@
tea@@
ንጉሡም
ገባ
zʹz@@
ህ+
ገናኛ
ማስ@@
as·syr@@
ለሁና@@
ከረ@@
ዑ@@
wilder@@
ተራራ
ሕዝቤ
ይበልጥ
ዮሐ@@
በመን@@
ያገለግ@@
killed
ባቢሎን
ሥጋ@@
ብ፣
stone
ዷ@@
right@@
ባሕ@@
ሐሳ@@
ing.+
ments@@
ይበላ@@
ጊልያ@@
th.
;+"
ገ
salva@@
unclean
ለት።
ችሁም
አንድ@@
gilʹe·@@
ሰባ@@
ፈሩ
ተነሳ@@
ʹma@@
glori@@
,the
third
ሰላም
ዳብ
ይል@@
ቀርብ
entrance
slaught@@
ለኛ
ገኙ@@
ላው
ተረ@@
በምድሪቱ
ባላ@@
በሚገኘው
it.+
እንዳል@@
ኤርም@@
ses,
gather
አምላካችሁ
gods
ለይ@@
ፍት
fall@@
አንደ@@
ዕጣ@@
ጥበ@@
ነበር፤+
ዓም
ንጫ@@
ፊ
dwell
ed:
ሙን
ዮርዳኖስ
joseph
እርስ
jerusalem,
god.
wilderness
12@@
possession
ድ፣
እንጨት
sancti@@
ወጥቶ
daughters
samu@@
ይኖር@@
ሄደ።
ምሥራ@@
ጦሽ
establi@@
ስድ@@
መሆኑን
ነገሮ@@
መመ@@
ድል
አቅር@@
ዕድሜ@@
ተስፋ
again@@
moʹab@@
princes
ማለትም
ዱም
city@@
ስለሚ@@
aʹha@@
ያደር@@
ማን@@
h+
bringing
ቁጥ@@
ነዋሪዎች
፣*
aband@@
ሌ
ፍቅር
”+"
ብና
ወስዶ
ውያን+
አንዲት
የጦር
ምሥ@@
ሉም
me:
ዳዊትን
ሳይሆን
ነዋ@@
በመጨረሻም
ነው፤+@@
ሕያው
እንዳለ
ሁት
በሰይፍ
decl@@
በመላው
phi·lisʹtines
ከእንግዲህ
flock@@
ጄ@@
ቸውና
ጠረ@@
ራስ
ሆንኩ
አገልጋይህ
h,+
ዳው
·e·@@
camp
የላ@@
የሚል
ወሰደ@@
መሠረ@@
ማለት
practi@@
ርን
ተን@@
መልስ
ቢሆን
ሱ።
th-@@
ወይን
‘this
እንዲሆን
says,
spread
ቅረብ
እንግ@@
እዚህ
ደሪያ
them."
አባቶቻቸው
ዎችም
moses@@
ሳቸው
ችንም
ተነስተው
ኖራ@@
ዋል፤
measu@@
d+
ደቡ@@
rise
በምድረ
"40
ይቅር
childre@@
ሐሴት
ምድሪቱን
o·@@
ል*
rescue
ማንኛውንም
ትላ@@
አንተ@@
ፌ
sa·mar@@
በነገሠ
prostitu@@
judge
ከአባ@@
ከታ@@
ጽድ@@
ቆመ@@
ጄ
ቢ
ደብ@@
·ites,
ሷ
wicked@@
accoun@@
whatever
ብዬ
garments
oil
መዛሙርቱ
ማድረግ
ውጣ@@
መዝ@@
የሃ@@
syri@@
ድ+
“why
ሕዝቡም
ብታ@@
ሰቅ@@
ዞት
መጥቶ
አለበት@@
መሣ@@
።’”+
s;
ይሁ@@
entire
·a·ri@@
m+
cep@@
እኩ@@
ʹah+
ውያን@@
amʹ@@
የሆነ@@
?+"
ቀት
citi@@
የሚጠ@@
ma·@@
ፍሬም
ይስሐ@@
ልጁን
ድንኳን
regula@@
ልን@@
mou@@
፤*
46
አጋ@@
dʹ@@
ብራ@@
ror
ኢየሱ@@
ሰበሰ@@
አገልጋዮች
ራእ@@
ጸን@@
ፈረሶ@@
anoin@@
እሰጣ@@
የእህል
“it
armies
ʹle@@
ፍረ@@
የተለ@@
festiva@@
ቀርባ@@
houses
prophets
ባሉት
አምስት
ናቡ@@
ነፃ
ክፍል
answered
ይሰጣ@@
ጀምሮ
በዘ@@
መዝሙ@@
ባሕሩ
enemies
ጀመሪያው
እል@@
አህ@@
ታችን
በታች
ጉባኤ
ኩ።
ጠየቀ@@
ቹና
ይሻ@@
ተኞች
,+for
answer@@
እሷ
“look!
ጥፋ@@
የት@@
ትችላ@@
ብ+
ለዚህ
እጆ@@
ረውን
ቶችን
ሕዝቅ@@
ፈ
ትር@@
ኛውን
ጎ
ይኸ@@
ኖር@@
“and
amʹmon@@
ውል@@
stret@@
ለእኔ
statu@@
ባሕር
approa@@
ሮቹ
በቤ@@
ጨለማ
እንደገና
merc@@
ሠራ
የነበረው
ምጣ@@
union
ሜዳ
worth@@
ስፍራ@@
በግ
ቀመ@@
yourselves
ሁለቱ
.’+"
ያስተ@@
ንቃ@@
capti@@
d·@@
ጀመር።
peoples
ፀሐይ
ዕለት
ከፋ@@
cau@@
ደግ@@
fear@@
ነበረው
ቁጥር
ም፤+@@
prophes@@
“go
አድርግ@@
ሔ@@
ቱና
ላችኋ@@
hez·e·ki@@
ንያ@@
ተዋጊ@@
ነቢዩ
ብለህ
እጁን
be·@@
heads
mountain
ያውቃ@@
ወቅ
በዙ@@
pill@@
ቆር@@
በመሠዊ@@
ll,
ሩ።+
ሠራው
god.+
ron
ካህ@@
ዘወ@@
pharʹao@@
ጣዖ@@
ስላል@@
ትር
ይዘው
ዙሪያ
ለእስራኤል
መቅደሱ
።’”
strong@@
የወርቅ
guar@@
paternal
መለስ
ሰውየ@@
ምሽ@@
ሹ
“let
stumb@@
ግር
ይሸ@@
babylon
ness,
መዛሙር@@
እው@@
morning
naʹ@@
አዲ@@
እርሻ@@
ረው@@
ፎ
out,
ሁሉ፣
መላ@@
እባ@@
ያደረ@@
ved@@
saying,
voi@@
ሱንም
እስቲ
በሚገባ
ለች።
ስለተ@@
destru@@
በገዛ
ፀጉ@@
ነቢ@@
destroy
mount
ሄዱ
ሌዋ@@
back@@
surr@@
ራራ@@
በኩር
ጎዳ@@
ኋላ
guard
የበግ
ጤ@@
abu@@
deso@@
ናቸው
ብሔ@@
አዛ@@
bow
"41
ቀኝ
ቀናት
taberna@@
የገባ@@
ቅረ@@
አካባቢ
መለከት
መላው
ታቦት
አድርጋችሁ
ጠባቂ@@
ድርጊት
ants@@
eyes@@
;they
እንዳት@@
ch,
wra@@
አንዳ@@
d*
ል?+
ve,
seven@@
ታል።+
አራት
እያንዳንዳቸው
የሚሰ@@
ሞዓብ
አወድ@@
አደረጉ@@
ፍርሃ@@
ጽና@@
ከእስራኤል
ምጣት
ጥር@@
boundary
jonʹa·@@
another@@
ያቸው
ወደዚያ
መለሰ@@
ከይሖዋ
strike
ce.
ሱና
places
ፈልጋ@@
him.+"
አድርጌ
iʹa·@@
beth-@@
ዮናታ@@
47
;he
ነው፦
ብለ@@
ጠዋ@@
ቄ
ኤሊ@@
bʹe·@@
ምንድን
ነፋስ
territor@@
offerings
የነ@@
a·hi@@
ለዋ@@
arro@@
ወል@@
ከናወ@@
city,
ይሆን@@
አምላ@@
መሆን
መዋ@@
-in@@
east
ወስደው
.’”+
እርዳ@@
ብዙ@@
ሰው*
አማልክት
run@@
also,
inhabit@@
month,
behin@@
is,
ʹjah
ልጆች፣
ʹz@@
t*
አለ።+
wild
viney@@
ደርገው
ሕ
bull
መኖ@@
በእናንተ
ጸሐ@@
የእስራኤልን
ዙፋ@@
ማማ@@
carried
now,
መልእክት
ታል።
እንዲሁ
ደረሰ@@
t.+
“እናንተ
ሆይ@@
ገና@@
አማልክ@@
tar@@
vid@@
ወለደ።
ምክንያት
sma@@
immediately
favor
abʹ@@
ትና@@
although
m,+
fruit@@
ግብፃ@@
ሳው
ታማ@@
ተባዕ@@
ባቸውን
oil@@
foreign
አልቻ@@
ወይፈ@@
ኀ@@
የው@@
ቡ፤
ጠጣ@@
arʹ@@
caʹnaan@@
baʹal@@
babylon@@
ቀለ@@
ወዲ@@
የነበሩትን
outside
clean@@
lay
ኖረ@@
ተኛውን
ቱንም
እርግ@@
።"
ገረ@@
them.+"
ኅበረ@@
she·@@
የሚሆን
uncle@@
go,
tongu@@
land,
ashʹ@@
ፍረት
አረ@@
ደት
replied:
ፈሪ@@
ጽዮን
ሞላ@@
እንድታ@@
00@@
ን፤
s:
assembly
ከሆነ@@
“we
ባይ@@
የሚያሰ@@
አባቴ
temple@@
በሬ@@
ቡት
አለኝ@@
ምረ@@
የነበረውን
ዞር
ርግ@@
ሥርዓ@@
ነፋ@@
israel.
መሠዊያ
የባዕድ
የማምለኪያ
zion@@
descendants
ዳዊትም
አድርገው
ይደ@@
ስለማ@@
በንጉሡ
neither
ኢያሱ
"42
ካህናቱ
ልጄ
በዛ@@
አምላኬ
ጅም
ዘይ@@
ቸዋል።
ኃላ@@
ንት
ርከ@@
ነውን
le,
ልና።
ርም
ልና።+
ባችሁ@@
ፍታ@@
ርና
ንና+
ወቅት
ዎቹም
ረክ@@
baʹ@@
fla@@
lying
sacrifices
የሚከተ@@
48
sees
መግቢያ
በታላቅ
+—@@
gone
ያመጣ@@
a·b@@
kill
moses:
alive@@
አብረው@@
ለአንተ
ኸው
ግደ@@
reig@@
ዴ
faithful@@
messen@@
rose
sum@@
exal@@
ህ*
ጊያ
jeremiah
discip@@
lled
ራሴ
ፍላ@@
loa@@
done@@
ርዝመ@@
በሙ@@
ነበሩት
ይጠፋ@@
ዘጋጀ@@
father,
ቀርበው
ሆንም
ዋጋ
ካለው
ትንቢት
sitting
ናውያን
ል’
ሐሰ@@
error@@
.’"
ነቱ
detestable
ምልክት
atta@@
quick@@
looked
ነገረ@@
ይናገ@@
በገ@@
ይሖዋ*
ጥቂት
caused
ከባድ
የብር
departed
phe@@
ልኩ@@
እላችኋለሁ፣
ዓይን
procla@@
ገኙ
warrior@@
ይጠብ@@
ኃያል
ctu@@
him,+
ባልንጀ@@
በዙሪያ@@
ነገሠ@@
ሱ፤
ጥቃት
ትውልድ
ተወ@@
ግንባ@@
egypti@@
ወዮ@@
ያስን
ደስተ@@
creat@@
የውኃ
abʹsa·lo@@
ዱር
ቺ@@
ne·@@
instea@@
ire
ያህ፣
joseph@@
አይሁዳ@@
ጠላቶቻ@@
እኔ@@
ምልክ@@
‘you
ተክ@@
ሄደ፤
ʹi·a
ገንዘብ
mour@@
ዎች፣
ደርጋ@@
ውረ@@
cover
baʹla@@
neb·@@
አገልግሎት
ለመሆኑ
ዕድ
ች*
ዶቹ
ምሥራቅ
ጠበ@@
ል፦
oa@@
በአጠቃላይ
“እነሆ፣
ርዳ@@
መንጋ@@
ልማ@@
israel.+
mountains
ces,
forti@@
foreig@@
shʹa·@@
የጎ@@
ሆነው@@
jehovah."
ው*
ናችሁ@@
ልኝ
ለፊት
መከራ
cit@@
mʹ@@
mon
ል?”
ሃና@@
?”+"
ነበሩ።+
over,
በራሱ
አግ@@
ገን@@
እያንዳንዳ@@
tion,
መሸ@@
ኃያላ@@
ራችሁ
አብረ@@
walking
አይኖር@@
የተሰ@@
ʹsha@@
ረብ@@
ኢዮርብ@@
ሜሌ@@
አሥር
መልአክ
you."
ዌ@@
ንን@@
fles@@
ፁ@@
say@@
ኖስ
ነገሥ@@
solʹo·@@
ማለ@@
ሃ
ʹja@@
ገው
ለዘ@@
egyp@@
ኜ
መቅደ@@
እስራኤልን
ጳ@@
ምግ@@
ወይ@@
enemi@@
መሠ@@
ver,
ሼ@@
ቢሎን
lou@@
inherit@@
እነዚ@@
ጉባ@@
ልክ@@
plea@@
rescu@@
ሉትን
"1@@
አለው@@
ልጋ@@
ዮሴ@@
የሚቃጠ@@
ጌ
saying@@
ንጉ@@
ስፍ@@
might@@
እንጨ@@
ዳዊ@@
coven@@
ተባ@@
repli@@
በዚያ@@
ይስ@@
assemb@@
arge
spr@@
:"
ኖ
ታቦ@@
ሪያው
ዌ
ሸለ@@
በኩ@@
አደረ@@
እያንዳን@@
ሌሊ@@
ፈቃ@@
said@@
ዉ@@
ዖን
ሏ
ኒ
ሞዓ@@
ጺ@@
ጲ@@
ኙ
fami@@
ምድሪ@@
ዣ@@
ድጓ@@
በጣ@@
glor@@
ጵ@@
ኘት
ማግ@@
cub@@
ሎት
ደግሞ@@
ገንዘ@@
ሰለሞ@@
ዲህ
ught@@
መልካ@@
reme@@
መከ@@
ድቅ
ኻ@@
ሑ@@
ገዛ
ፆ@@
ጂ@@
ጪ@@
ሼ
ጮ
ጦር
live@@
የነበረ@@
ተስ@@
ʹab@@
decla@@
ዣ
ኪያ
·li@@
ንጉሡ@@
ጴ@@
ኹ@@
yal
ላለም
ስቶ@@
ዕ
·e·ki@@
ror@@
ሎን
ዢ
ስተዋ@@
esti@@
የሆነው@@
ኃ@@
ርብ@@
ark@@
rin@@
ኡ@@
እባክ@@
ጤ
አገልግ@@
ፅ
ተነስተ@@
ሯ
[@@
ሄ
ሥር@@
dwell@@
lder@@
አካባ@@
ጼ@@
ዎ
ምሮ
ችላ@@
child@@
ዮርዳ@@
yo@@
ሾ
outs@@
ከ
ድርጊ@@
ዞ
ናታ@@
ለሁ፣
joshu@@
ግመ@@
እሷ@@
ጧ
ዚያም
ጦር@@
፦@@
ዕድ@@
ጶ@@
ሞገ@@
ልጣ@@
መሥ@@
cei@@
ጇ@@
ጨረሻ@@
ውልድ
ዊት
እክ@@
ጽዮ@@
sa·@@
ጋችሁ
ሆ
በተጨማ@@
fro@@
descend@@
ዓላ@@
ሊ
ራኤ@@
ይበል@@
እንዴ@@
ዥ
ፓ@@
ጻ
ኘ
ኛውንም
ሣ
በኋ@@
ዠ@@
ዥ@@
ዪ@@
depar@@
አ
ጥሮ@@
ጊ
caʹna@@
በእርግ@@
ቋ
ምለ@@
ክርስቶ@@
በነገ@@
ርዝ@@
አማካ@@
so,
ጰ@@
desc@@
sau@@
ካከ@@
sʹ@@
gilʹ@@
ጀ
ንጹ@@
ሐ
ስለነበ@@
ጳ
ለምን@@
ith@@
ዓ
ፁ
ጨማ@@
ፀሐ@@
በሰይ@@
ልግ@@
ፍልስጤ@@
ኽ
wick@@
ሠዊ@@
ሕዝቡ@@
ሳሌ@@
ሆኑም
ሖ@@
ጬ
ኃጢ@@
መዛ@@
ሪም
ኅ
ሺ
ልያ@@
wha@@
ልስጤ@@
መልአ@@
ቾ@@
mone@@
ጇ
ስለሆነ@@
ጹ
አጠገ@@
ither
ፑ@@
ኹ
ርም@@
ዳግመ@@
እነሆ@@
detes@@
ቧ
የነበሩ@@
ኳንን@@
ዦ@@
ሆኖ@@
ጸያ@@
burn@@
ኽ@@
ቃት
ኟ@@
ሥ
ፐ@@
ፄ@@
ጩ
bound@@
b·@@
daught@@
አይሁ@@
ኚ@@
አሁ@@
ሀ@@
ጸ
sit@@
ዤ
sover@@
።’@@
ኤ
ጠቃ@@
ዷ
ዲ
eʹph@@
ዋዕ@@
ቺ
ጆ
ra·@@
ወዲያው@@
ስቶ
ሡ@@
ህል
ጂ
ዉ
ሟ
ጽሐ@@
አንዲ@@
ዢ@@
inging
ph
ፒ@@
arʹa@@
circu@@
ወ
ጪ
regu@@
ለማግ@@
immediat@@
ሸ
ጥቂ@@
ቢት
ኄ
ዮ
ጬ@@
ኗ
ፔ@@
ክንያ@@
ሔ
ኧ@@
በመጨረሻ@@
እላችኋ@@
litt@@
sheph@@
ሁም
ልስ@@
ምክንያ@@
semb@@
ኜ@@
ጱ@@
vil
ቅር
እናን@@
ዒ@@
ፖ@@
ኺ@@
]@@
ልክት
ኳ
ጴ
ጁን
ሲ
disciple@@
ኪ
ዤ@@
ሿ
inha@@
መሆኑ@@
ጨ
አዎ@@
thered
ዪ
ዚ
ፏ
ሿ@@
ע
ዜ
ኬ
ሙር@@
እዛ@@
ኄ@@
phi·lisʹ@@
sa·lo@@
ጿ@@
ኾ
ኚ
ጯ@@
ኡ
ፕ@@
ፃ
ያል
ሉዓላ@@
ሒ@@
warri@@
ምለኪያ
ו
tar
sab@@
ኢ
ጨለ@@
beca@@
ዑ
lʹo·@@
ኣ@@
nex@@
ב
צ
ל
phi·li@@
ח
ቸ
ጵ
ሂ
.*@@
ma·nasʹ@@
ק
ת
እ
ሡ
ጓ
ኸ
አስጸያ@@
ጾ
ሠ
sale@@
ኼ@@
ሽማግ@@
spon@@
ያዕ@@
ሑ
ኟ
fore,
ሧ
ጢ
ሤ
ሤ@@
ፀ
as·@@
ዡ@@
ቭ@@
ዲያ
ሦ
festi@@
ባልን@@
ኺ
በአጠቃ@@
ሖ
mediat@@
ፓ
syr@@
ኦ
ጼ
pharʹa@@
gan
ኻ
ዡ
ኋ
betwe@@
ቾ
ኼ
ח@@
ז
ጱ
vbe
gha
ya
ẹre
iran
wẹẹ
mwẹ
ọghe
keghi
Jehova
emwi
emwa
ghi
ni
rre
kevbe
sẹtin
khian
egbe
rẹn
mu
rhie
sẹ
khẹke
Osanobua
hia
De
vbene
miẹn
ọmwa
odẹ
ẹghẹ
Vbe
ghaa
Jesu
ọre
etẹn
obọ
rhunmwuda
iyobọ
eso
nii
kha
ọkpa
ruẹ
iwinna
hẹ
Baibol
irẹn
orhiọn
ọvbehe
nẹ
aro
zẹ
ekhọe
Ma
yi
gbe
maan
yan
nibun
ukpo
otọ
ẹmwẹ
ẹi
mieke
gie
iko
ẹmwata
Te
gu
avbe
ghee
loo
gele
daa
deghẹ
si
rrie
sokpan
ẹvbo
kaẹn
Pọl
Sokpan
ga
agbọn
Ivbi
ugamwẹ
hoo
vberriọ
guan
Kristi
uyinmwẹ
iyẹn
Ọna
yọ
igiemwi
tama
arrọọ
kporhu
ako
uwu
rhiẹre
Vbọzẹe
ọnrẹn
Ne
gberra
ikporhu
ighẹ
Iran
vbenian
hoẹmwẹ
lele
yo
ghẹ
Emwi
esi
adia
owa
ọni
werriẹ
wegbe
khin
ọtẹn
gi
ọmọ
vbuwe
Emwa
khare
rrọọ
ahoẹmwọmwa
ọghẹe
suẹn
Esu
gba
ẹgbẹe
igiọdu
sunu
ẹko
Jọn
Vbene
ẹdẹ
ẹtin
igho
uhunmwu
sayọ
Vbọ
Ẹmwẹ
maa
emọ
vbekpae
kegha
roro
dinmwiamẹ
Izrẹl
ọna
gualọ
zẹvbe
okhuo
taa
tae
gbẹn
Mat
eva
ivbi
Rom
hin
Ivbiotu
Rhunmwuda
rhiema
Iwinna
bẹghe
zẹe
evbibiẹ
erhuanegbe
nagbọn
Gha
ladian
dekaan
Psm
rhọkpa
sọyẹnmwẹ
wu
Ọtẹn
Arriọba
evba
iruẹmwi
Tie
dee
arọndẹ
ẹdẹnẹrẹ
ziro
nokhuo
Deghẹ
biẹ
muẹn
erhunmwu
ọlọghọmwa
Avbe
kue
ọvbokhan
Luk
vbọ
emwamwa
Wa
Ju
nẹẹn
ihuan
Osẹe
izinegbe
họn
ọghọ
orukhọ
ekpataki
nọhuanrẹn
ẹwaẹn
urhuẹvbo
ughughan
rri
Nọyaẹnmwa
Itan
Kọr
ọghomwa
Ẹi
Ọmwa
afiangbe
ediọn
eguọmwadia
yin
Etẹn
kie
yae
Ẹghẹ
iyeke
Nọnaghiyerriọ
rhiegbe
rua
Erriọ
Noa
iziro
ilele
winna
kpataki
gbọyẹmwẹ
azẹ
nuẹn
deba
ọfunmwegbe
uhi
Odẹ
yotọ
erriọ
zẹdẹ
igbama
Osa
ọyẹnmwẹ
Nọ
kpaegbe
owebe
discipline
unu
inọta
okaro
tua
ilẹkẹtin
rẹnrẹn
nokpia
ọgbọn
fian
ovbi
werriegbe
mudia
imẹ
ro
rhiẹnrhiẹn
yevbe
viọ
sikẹ
ba
eni
Devid
ọta
arriọba
amuẹtinyan
Ukpo
Pita
:⁠
gua
ẹkpotọ
mẹ
Tim
nia
orọnmwẹ
lọghọ
lae
evbare
Josẹf
ukọ
Ọghe
fan
iwu
edanmwẹ
irẹnmwi
ọse
Mozis
ifuẹko
usun
Ọba
Daniẹl
ọdakha
ewanniẹn
bu
hiunsi
fiohan
rhan
Gẹn
rhirhi
nokaro
ẹrinmwi
afanvbimu
akugbe
compassion
nọkhua
lughaẹn
—⁠
uyi
otagbọn
erhan
oya
encouragement
kẹ
asikoko
otuẹ
fua
yaro
ban
fiwerriẹ
yerre
Vbọrhirhighayehẹ
mobọ
amwẹ
Ọgua
udinmwẹ
Agharhemiẹn
okha
gae
ẹbu
asẹ
khọn
rherhe
Zẹ
eyan
fiangbe
kherhe
vba
sovereignty
Myanmar
nẹdẹ
ibude
Ghee
odaro
ọyunnuan
Ebe
ohu
ohan
okpia
deziẹn
Jems
erria
rhiegba
Meri
akhasẹ
okọ
alaghodaro
odin
koko
personality
izọhẹ
itohan
sẹrriọ
evbọzẹe
goals
khuẹrhẹ
yayi
ẹrhiọn
uwẹ
Ẹfis
Abotu
Hib
nẹi
oghọghọ
ihe
eha
agiẹngiẹn
ohoghe
Aiz
ẹkoata
Timoti
Nọhuanrẹn
Ọrheyerriọ
IHUAN
sọtẹ
khẹ
gbẹnnẹ
iyayi
Jerusalẹm
kẹkan
orre
SONGS
huẹn
Solomọn
Gal
khọ
okiekie
esa
erha
mwa
yabọ
agharhemiẹn
ọkhọ
amẹ
etẹbitẹ
mianmian
gbogba
uhunmwuta
Ya
iye
gbaroghe
rae
Ghẹ
refuge
gbain
Mẹ
owẹ
Na
afiwerriẹ
danmwehọ
Zẹkaraia
Evbagbẹn
Matiu
Ebraham
Irẹn
ehia
Ugie
zedu
kpẹ
Rehoboam
ivbiyokuo
ghe
arowa
urhu
su
wulo
gia
okhuẹn
ototọ
bi
tobọre
Sam
Ẹre
wait
Ako
gbae
ahoo
Ru
goal
Ireland
buohiẹn
mercy
Nokpia
ehọ
rhia
patience
dọmwadẹ
tobọ
sinmwi
sotọ
Pit
abọ
ikpakpa
oghẹ
singing
Orhiọn
Turkey
isievẹn
iro
Erha
waa
jw.org
ikhuo
dedication
kẹrikian
Gi
wọọ
ẹbo
ọguọmwaziro
kakabọ
imamwaemwi
hiehie
desires
uviẹn
Zẹvbe
dinmwi
kugbe
Uhi
kpemehe
yẹẹ
oseghe
Ughaghe
Ọkpa
zinegbe
Kọl
erre
Ukọ
Arhie
develop
Fil
Ivi
Ayere
lẹgbinna
laws
Vbuwe
political
rẹrẹ
imu
odibo
kpe
hae
Gia
Mẹzaia
ayayẹro
khiẹ
Nia
ikpia
hannọ
yaẹn
elder
gbodan
eghan
kpokpo
Eso
okuo
Uyinmwẹ
illustration
Mexico
hẹnhẹn
egbuẹ
ẹnrẹn
truths
bun
arhiọkpaegbe
uhiẹn
gbọọ
encourage
ku
encouraged
otako
Babilọn
eghian
Maria
fruit
dọlegbe
osi
hospitality
rhiọ
practical
Russell
vuọn
ukpokpo
dekaẹn
genuine
ọba
reflect
challenges
benefits
omuhẹn
abotu
alama
ayọn
Ahoẹmwọmwa
territory
focus
Mak
ghọghọ
endure
Filipai
Yevbesọni
Inọta
Ẹks
ufomwẹ
ebo
Ẹdẹ
uki
tuẹ
Egbe
idinmwiamẹ
bear
muan
ọgbaroghe
Memorial
office
okhian
emianmwẹ
Ọni
Ẹmwata
imọto
Keep
Okha
fu
bọ
tota
khu
regularly
asọn
wewe
start
protect
abakuru
lẹ
uniẹn
Ovbi
ghaan
quality
ọdiọn
ẹdogbo
rriotọ
Hibru
dẹ
becoming
pp
ughe
ena
ẹfe
demu
accounts
shown
begbe
Mata
Rẹn
ẹzọ
contrast
salvation
disciple
addition
assigned
publishers
riches
sekhae
despite
isi
Madagascar
Kyrgyzstan
treasure
Adeghẹ
encouraging
School
waan
ehọnrre
Ekhọe
ighaegbe
zẹẹ
enẹ
interests
Setan
recognition
City
worshippers
Japan
interested
ghae
ukpamuyọmọ
enegbe
tian
Evbibiẹ
faced
challenge
fruitage
rinmwian
wẹbsait
khọnmiotọ
progress
Hia
lesson
iyi
Okpia
Ena
prejudice
lessons
Ovbiotu
July
lelẹe
nikpia
Diut
strive
spirituality
enjoyed
include
ẹnina
lack
kpọnmwẹ
grow
miẹnfan
uzọla
rree
beyond
regular
Krọ
showing
attend
evbọ
pioneers
sọnnọ
prison
ipapa
ugbo
Remember
khiẹn
okuta
Aro
focused
Okaro
dedicated
experiences
Perhaps
Before
Aizaia
wan
ugie
amusẹ
arrangement
humility
asikẹgbe
Also
Tẹs
Philippines
Grik
Vbua
importance
Asan
keeping
greatest
gima
Later
lẹga
JW
okpe
relatives
Yerre
Isa
yunu
obalọ
tọn
khuọnmwi
steps
cultivate
paragraphs
education
else
beghe
nikhuo
Jekọb
arrived
immorality
Zechariah
friendship
erhẹn
prize
Ask
eniwanrẹn
quickly
aspects
Igiemwi
Evba
beliefs
worked
relates
ugan
Mwẹ
musọe
conviction
Erhae
ọkaolotu
Dan
affect
Ugbẹnso
blessed
express
provides
Obọ
songs
protection
yangbe
guọghọ
publications
sọfurre
izigha
command
knows
overcome
ọhẹ
Love
ẹkpo
seeking
sharing
opposition
ruẹn
kpẹre
147
ẹdẹgbegbe
situations
consequences
Ye
propaganda
test
Wycliffe
gbaengbe
Afiangbe
ugbẹnso
Kọrinti
Anna
Igbama
approval
preached
behind
negative
119
improve
knowing
youth
attending
isiwinna
Pet
ẹki
ọbo
vburriẹ
opportunities
key
ọrheyerriọ
ahead
gbaro
career
Uwu
observe
faithfully
Translation
guẹ
warning
urhomwẹ
meditate
erhae
ọyẹvbu
positive
Farisi
parent
basis
effective
vbenia
invited
social
nọnaghiyerriọ
Ẹbu
fail
results
deeply
dọlọ
sacred
occur
nai
khaevbisẹ
akhiẹ
ogieva
Sailas
grief
umian
Have
event
Otọ
setting
manner
included
unexpected
adọlọ
Emwamwa
Don
door
humble
Nogieva
expect
ẹzẹ
igbe
ukpọn
overseer
biẹlẹ
patiently
Su
ọmaẹn
changed
izabọ
efoto
evbibiemọ
brings
promote
languages
Igipt
Rhie
guests
ginna
paragraph
Young
Pharisees
personally
dekun
vẹẹ
involves
greeting
diakhẹ
Similarly
reject
yerriọ
Another
worldly
realize
Stephen
tribulation
umozo
Ọsian
khuiwu
okeke
grateful
umamwẹ
aspect
ihan
Martha
changes
urged
decided
approach
alughaẹn
understood
nokiekie
Could
followed
explain
lekpae
London
obẹlẹ
imperfect
worth
nogie
ehan
ivbuẹ
rhọ
necessary
expressed
minded
tẹ
allowed
satisfaction
Yearbook
articles
presence
realized
Zechariah’s
commercial
Despite
Philippi
feeling
Eyan
step
speech
rejoice
basic
obedience
forward
ukpowẹ
Keni
izọese
assist
dizigha
dunna
endurance
enọwanrẹn
Watch
Sameria
wee
sincere
Ii
ihinrọn
vision
short
Questions
ekhue
battle
pioneering
principle
Pakistan
nikẹre
forgiveness
ọghae
vbiẹ
fleshly
appropriate
heartfelt
vẹwae
Ọfunmwegbe
traveling
attended
Body
opening
indicate
orhunmwu
ekẹn
shine
required
measure
added
Governing
2014
prayed
Ra
Prov
choice
rejected
affection
English
han
Others
seemed
igbinnoguo
suigiẹ
secular
strengthened
Likewise
51
ibiẹka
Britain
ẹdẹrriọ
Uki
ukpa
takes
big
rọnmwẹ
ẹkpẹti
fẹko
spent
idin
Riana
tax
confident
Knorr
izọghae
Nọghayayerriọ
gifts
affected
Note
ogiẹ
literature
Asẹ
hanmwa
muegbe
pressure
Tower
telling
IUDs
Ọmọ
adẹwerriegbe
Silas
idea
determine
orhunmwuyẹn
discuss
courageous
otiti
isẹn
2013
ukhu
kpannọ
smile
prevent
weak
behalf
household
contribute
overwhelmed
assured
instead
observed
viẹ
Iko
Gima
suffered
applied
responded
Australia
asking
ibavbaro
forget
student
imagine
translation
reached
waiting
individual
patient
Kyrgyz
imuegberriotọ
Emọ
kpasẹ
response
Col
donations
Two
construction
moving
Phil
outstanding
win
practices
katekate
trial
concerned
white
related
display
privileges
Heb
generous
ẹsẹsẹmwẹse
Russia
compassionate
behavior
completely
kọe
Gen
extent
vẹn
ihẹn
town
challenging
choose
valuable
Mosis
trying
ọkpẹn
bearing
examine
association
Imagine
kotọ
invitation
pursue
97
Once
newly
pressures
ihua
agbẹkunsotọ
produced
kpọlọ
tila
wives
siẹnro
ftn
chosen
visited
Cain
Make
demonstrate
train
rraa
surprised
firstborn
increase
drawn
loves
conversation
idobo
Oct
delight
seeing
happen
choices
asefẹn
Asia
putting
Nọm
Jas
Nabal
succeed
Uhiẹn
meal
India
looking
kaan
atamuolọyan
Eph
ivbiogue
cope
Soon
treasures
convinced
oze
Each
offspring
belong
Jọsua
osẹ
reaction
Holy
practice
Uwa
react
person’s
missionary
aranmwẹ
adds
relate
agbẹnvbo
indeed
traveled
superior
118
afraid
VBE
Bronx
olọ
Keghi
offers
Owa
Ruẹ
repentance
zobọ
mildness
gbẹe
beloved
caring
includes
pleasures
sinful
Mal
2011
ikpẹdẹ
aza
uphold
oreghe
About
nogieva
Or
month
areas
seems
grew
Parents
one’s
Sẹ
consolation
energy
gbegba
cases
immoral
entertainment
fuẹn
handle
plans
unbelieving
resurrected
Ezekiel
ọsian
correct
devotion
ọviẹn
simple
Ribeiro
52
quite
Arthur
Re
kun
ovbiyokuo
Kọlose
reward
contact
note
success
Broadcasting
Kazuhiro
Louis
trained
Siẹbna
missionaries
Willie
gui
campaign
alive
Uwẹ
Ebo
demons
homes
pride
endured
Though
lovingly
easier
awua
Ẹkpotọ
beautiful
Ẹzikiẹl
ọghuẹ
Adia
Where
property
David’s
80
drew
fulfillment
Juda
fight
easily
record
Flood
Tokmok
reveal
anxious
freely
injustice
Philippians
Elizabeth
post
analyze
ifuẹro
unrighteous
issues
November
ikuanegbe
exercise
orhọnmwẹ
ewanmwẹ
Joseph’s
mwamwa
accurate
guide
Version
break
expected
maturity
osisi
expression
Mẹriba
recognized
accomplish
territories
store
Clearly
fugitive
orere
welcome
nekhui
vbo
Society
specific
nu
iku
1950
ẹsẹse
directly
Deut
nekherhe
employment
insight
song
June
ohuan
neighbor
Hans
53
theocratic
rhiae
conflict
ẹkorhiẹnrhiẹnmwẹ
funds
factors
suggestions
accomplished
ekueku
studied
Rre
closer
ezanzan
odibosa
Irẹnmwi
painful
emotional
universe
imiẹnfan
greaters
Robert
Nevertheless
oha
April
primary
worthy
arriaisẹn
ruling
Service
receiving
names
carefully
Am
Ọyẹnmwẹ
orhikhan
prepare
Think
Noah’s
statement
significant
worua
ematọn
otọre
Ẹzra
Nadia
Erhunmwu
ovbuẹ
direct
owiẹ
container
joyful
Isọ
Miẹn
Yẹrẹro
concerns
reflected
Ẹgbẹe
persecution
Unlike
claim
Second
March
elderly
Ediọn
taẹn
1956
sẹe
stayed
faithfulness
Samaritan
properly
ọsie
valid
ebanban
ọtiọnrẹn
treat
limits
praying
translated
odekun
mose
fulfill
ibiẹ
egberọkhọmwẹ
ha
fẹẹrẹ
Her
greatly
eight
attitudes
osa
inu
biegbe
1990
Aizik
zọ
directed
igiogbẹ
ọguọmwadia
evbagbẹn
Over
abilities
engage
applying
unique
iyisẹn
rebellion
Brooklyn
gbarokotọ
overseers
rulership
nanaẹn
Ohan
Land
gbọzinia
ẹgogo
Muẹn
expressions
Monique
opened
1952
gbua
gbaẹngbe
ẹzi
weeks
ikinkin
village
illustrate
Ai
Work
letters
emadogua
soldiers
kindly
admits
firmly
More
endeavor
applies
continues
normal
USSR
oghian
150
Sept
views
reasonable
reaching
Look
towns
ọkẹn
1919
struggle
fulfilled
sọs
Umian
wrongdoing
Hezekiah
Shebna
Ukraine
Asiria
wealth
prepared
talking
ẹmila
igue
list
Oke
vbekpa
unselfish
Wẹ
discouraged
rhẹghẹrẹ
Under
Milan
journey
accepting
seed
rran
willingly
Jọs
successfully
erẹnrẹn
dealings
inner
Sadly
difficulties
Jud
Mu
non
abandoned
tender
Josẹfi
evbayi
rra
recognize
Mieke
teaches
rhiọrre
harsh
join
angry
kua
Dublin
Kim
failed
Sylviana
familiar
original
advance
mature
moves
Okhuo
studying
divided
business
force
strip
prophetic
Ọvbokhan
ibiriki
outcome
dear
Job’s
responsibilities
bereaved
ero
younger
economic
Eguọmwadia
ọbokhian
produce
bond
visits
Afiwerriẹ
England
ọyasin
Kevbe
creation
kpikpi
forgiving
sort
san
minds
strengthening
decide
uhukpa
ẹrhia
somwa
exercising
gbele
stick
rhilo
egie
workers
ikun
final
2015
ughaghe
hianrẹn
avbiẹ
guilty
thrown
growing
Ẹfisọs
copper
54
High
request
Ẹlaisia
ẹsọn
kanmwa
evening
Hannah
replied
2018
agree
raise
aware
Ilele
listening
forgive
relief
Through
appealing
Ẹvbo
Perrine
secure
pornography
muẹnmuẹn
Karachi
Mairambubu
vindication
Abigail
orriara
displayed
quick
specifically
likewise
Blossom
ayere
aside
sila
magazines
Simone
attain
ekpayẹ
advantage
worse
decades
choosing
gbẹbu
presented
excellent
increased
enemy
admonition
viewed
Igho
abandon
ọkade
environment
olighi
Canada
limited
ẹrhu
Luigi
90
relative
designed
particular
growth
vbọzẹe
efoni
Jer
erẹrẹ
condition
55
appear
ikpẹ
Having
Giving
Nikolai
leading
Ex
miracle
Erọn
ukhunmwu
occurred
wickedness
Septuagint
gratitude
Nadine
significance
defua
Owebe
cared
Use
instruction
prospect
today’s
comforting
Gloria
Aug
burden
arise
Didier
saved
Ehe
requires
possessions
Give
recall
ziẹn
Whatever
Rev
ahọ
Khian
picture
evidently
hypocrisy
Usun
grown
Iziro
critical
afianma
ifiẹmwẹ
term
joined
teenager
133
maintaining
Readers
obstacles
race
ọsiọre
Pailet
49
uterus
main
disfellowshipped
box
fitting
Evbọ
Rachel
center
developed
committed
oghẹn
bọlọ
impressed
danmwẹ
Nazi
lovers
grasp
describes
granted
Sanhedrin
Gberra
rho
ohẹn
prominent
Irene
lẹre
Oghọghọ
pursuits
friendships
anxiety
ọrọre
differ
stake
pleased
dobọ
Ki
Lazarọs
zẹdia
determination
erhunmwuyẹn
Finally
warned
nine
Brazil
security
performed
Sọl
types
omwa
dealing
ẹmu
Mosaic
Balykchy
wọrhọ
rhuẹ
Promised
Arrọọ
zọese
atosi
dangers
usi
resist
trip
tohan
seriously
Sovereign
siẹn
motive
57
reasoning
acknowledged
personalities
ohanabe
Blessed
Happy
address
Should
October
travel
sacrificing
okhuae
girl
Colossians
Out
safety
goodness
approved
Daniel’s
Meribah
Nov
recent
okhiẹ
seventh
January
Doing
Tulun
delay
routine
promotes
Jumpei
tempted
talks
Nathan
Dec
acknowledge
Lazarus
ọvbi
nene
1943
89
oath
Zedekiah
official
Priest
iwe
Surely
comments
ọnii
passed
Elisha
require
I’m
IUD
Aaron
azara
Sakura
nọfua
poverty
identify
vast
83
Knowing
branches
resentment
wẹ
repentant
noticed
hurt
Peter’s
image
removed
Within
flee
pure
relations
ẹwu
didn’t
proud
deprive
opposers
mema
jailer
Spiritual
traits
mention
refers
culture
dangerous
believed
meant
inclined
Hanna
Awake
1,000
resolved
fiyekegbe
undeserved
authorities
leaders
Ivbiyokuo
Source
serves
eku
ifi
generously
particularly
Hiehie
Take
involve
Okuo
angelic
loyalty
Udinmwẹ
connection
Graham
gbawawẹ
Ephesians
governments
Rutherford
officer
differences
Ẹko
rightful
yaeyi
84
due
perspective
ovẹn
conditions
okuọ
sides
shared
ẹmwa
O’Connor
Soviet
touched
ẹwẹ
impact
alongside
legal
irrioya
Ministry
verses
bibi
healthy
ponder
noted
1970
widow
Paraguay
urges
azagba
suffer
ota
zọghae
governing
previous
resolve
former
abroad
mistakes
wii
calm
car
Hardaker
ọka
benefited
sorts
witnessing
unintentional
meditation
associate
yoke
steward
refer
commandments
websites
treated
Idinmwiamẹ
hospitable
Other
refused
careful
ayabọ
Eccl
assemblies
play
gbọzinian
joyfully
man’s
Sera
organized
details
U.S
zealous
upbuilding
ongoing
Eden
ideas
Sẹtin
imagined
filo
ungodly
sinners
harm
65
offended
Vitaly
Thess
devoted
remind
teacher
closely
comment
audience
invite
concluded
conclude
influenced
Katharina
Library
people’s
103
inside
busy
scripture
encounter
story
December
Angat
contributed
merely
finished
Baptist
soldier
crowd
arrival
sick
music
56
conclusion
hoping
War
Explain
calls
Mary’s
subject
threatened
struggling
alcohol
exciting
Marthe
hearing
commendation
loss
welcomed
106
manslayer
Apun
repent
Esau
pattern
widespread
nianiaẹn
preserved
values
observes
middle
thank
Graz
Mount
remained
allows
Rose
Great
financial
Iyobọ
Ann
Says
higher
visions
obvious
hatred
ugbogiorinmwi
fundamental
tiẹre
chariots
fiangbua
tuke
Theocratic
military
obtain
jobs
Iyẹn
Hẹzikaia
compared
khọnrẹn
discern
eseghan
din
ugue
rhihe
visiting
wẹro
conventions
Zẹk
Ayi
igba
disobedience
rights
reflecting
Siberia
assurance
huanrẹn
neighbors
creatures
background
eternal
ẹyotọ
contributions
add
ugha
hell
pleasing
restored
location
road
gbinna
write
Vbia
Notice
limit
Eni
chose
eliminate
ikẹkẹ
understands
arhunmwu
Matthew’s
orhirhi
corruption
rhaa
Ohu
voluntary
isọtẹ
mid
tells
prompted
hormone
peaceable
emwikemwi
nian
abe
companion
Amuẹtinyan
ikpadede
peaceful
feels
observing
tribulations
covered
revealed
igbinna
Edanmwẹ
khiẹnnẹ
rria
wholehearted
igbava
ẹgiẹgiẹ
repeatedly
reveals
sell
Christlike
depression
Person
increasing
Ọlọghọmwa
Henri
Austria
ugiọnmwẹ
belongs
deserve
Story
shortly
Ibude
hopes
Assembly
mail
tongue
Jerimaia
Ọse
reflects
bless
turning
Gu
ghan
Awarọkpa
1954
fields
portion
exile
nianian
yẹrẹro
ihẹ
inian
ihinrin
Ẹwaẹn
haan
sirra
gbọ
appearance
Union
hiọnrọn
KGB
Evbọzẹe
JEHOVA
Ẹzi
caught
adjustments
assures
igbọvo
notice
Ẹzik
sex
ifiẹzọ
review
evbibiọ
La
appreciated
Iye
akpawẹ
Chron
otọe
rhu
initially
points
2017
zeal
absorbed
selfish
arose
drawing
successful
eveva
Nibun
headship
Nora
supply
sọ
movements
highly
shouting
disaster
Swahili
rock
Abigẹl
oni
yẹrike
associates
Pẹsia
writing
hio
cares
Quetta
expects
discussion
favored
remarkable
avan
ghẹẹ
deliver
frustration
agreed
irunmwu
Judia
Armavir
1940
population
tu
deepen
manifest
motivated
ukhiọnmwẹ
writer
stars
temptation
requirements
wisely
link
desired
Being
credit
slavery
independence
Know
bait
ọghomwẹ
ẹhoho
headquarters
reminded
eviẹn
Evangelizers
Regarding
labor
companions
freed
Galili
associated
irọkhegbe
reference
South
oyi
oleghan
ẹkhokho
Urhuẹvbo
room
encourages
America
Halls
Never
Hughes
khui
okun
site
abawẹ
uhanhan
ọrhẹnrhẹn
digiẹ
boy
newcomers
Livai
struggled
eager
gualọe
nọkhin
Thierry
ọyan
Him
survive
1959
ikhi
Department
pleasant
contain
fixed
nogieha
oyaya
Chinese
friendly
Study
longtime
threw
Pryce
jealousy
uma
teachers
Pavel
humbly
Thomas
Granted
bae
gained
teens
recently
Understandably
a·gaʹpe
tabernacle
Brothers
attack
quoted
major
formerly
Otuẹ
etiọnrẹn
previously
representatives
extend
zaan
exclusively
contains
instructed
yes
majority
tears
Akpawẹ
intense
exclusive
Walter
threat
asks
pleasure
causes
destroyed
feared
evbibiran
Arimatia
obeying
root
PSM
passage
Was
jealous
merciful
Gẹnẹsis
neighborhood
replaced
peers
Truth
Imẹ
series
rhua
acceptable
perform
ẹmwi
Pilate
strongly
huan
Only
father’s
bodẹ
ọkemwiokọ
udemwurri
degue
balanced
ẹsọhẹ
ọwara
ọdafẹn
ọdoẹki
characteristics
agbada
adjusted
feed
avoided
khuankhuankhuan
effectively
Allen
odede
imitation
ato
meditating
appeared
surprise
Ọta
Way
Sing
priorities
danger
grave
infected
sixth
confirm
ẹrọnmwọ
Aksamai
losing
partner
content
absolute
ease
stopped
Serving
ozere
Olinda
resources
Ọkhẹ
Luca
Sergio
passing
ọdia
Both
application
resulted
Solomon’s
spend
Livija
Ezra
I’ve
Among
emotionally
afterward
akueyi
writings
active
shoulder
establish
subjects
iyẹe
Philip
relatively
increasingly
Ewanniẹn
inviting
144
Taa
supported
exactly
facts
Self
miraculously
likened
leaving
imuohan
tools
Propaganda
ẹrẹna
overly
pursuing
powers
imudiase
Really
Teach
72
Sinclair
happier
helpful
Tẹsalonaika
grieving
comforted
Good
path
Peace
Janet
privileged
Hemsworth
61
thanks
holding
established
135
Uzọla
Wickedness
Eduard
provision
praises
admitted
urge
Arowa
slaves
Master
hates
instances
greetings
remaining
146
Bluff
doctor
providing
gathering
Eduardo
provoked
Kant
lacked
innocent
Heldai
glorify
brotherhood
sower
transferred
Antandroy
essential
Sinai
surrounded
reinforce
occasions
111
1955
dress
nearly
Pine
principal
southern
Benefit
acting
heal
becomes
persecuted
distracted
child’s
discussing
drive
surface
immediate
status
refuse
heat
probably
sexually
scribes
consideration
governor
Franz
adjust
invisible
metal
hosts
Mistelbach
2004
thankful
type
recommend
amazing
website
Martin
commended
sanctify
sets
62
crime
73
1979
declared
separate
publisher
nature
frustrated
visible
letting
discreet
groups
2006
discovered
trap
Emil
Sokuluk
master
delegates
sleep
reduce
await
lining
Bob
exhorted
wanting
Charles
Next
driver
1958
Estonia
general
ridicule
Transcarpathia
glorified
123
Latin
AS
modest
1988
Additionally
remains
99
vow
U.S.A
earnest
dealt
existence
helmet
solve
Rodney
Schroeder
district
supporting
possibility
vain
highest
none
hundreds
Barnabas
Volume
Supreme
Answers
trouble
sold
2,000
August
Apparently
surpasses
1991
imitating
materially
Jean
selfishness
scholar
Recall
cash
projects
primarily
Jane
hostile
tend
Minor
dedicating
Paula
Damaris
backing
1957
mother’s
discussed
black
Baptism
worthwhile
tired
schooling
viewing
sun
awaiting
Jordan
1987
portions
finding
crag
1977
rewarded
custom
110
It’s
obedient
racial
Israelite
1949
favorably
continually
produces
Sometimes
obstacle
akpehuan
emwiokọ
project
igoru
fastened
Uniẹn
Malachi
ọhanabe
obediently
amaiwẹ
fannọ
rightly
Emianmwẹ
Ẹse
considerable
believing
skul
gbọvo
imprisonment
orriarria
relieve
Relate
witnessed
task
promoting
Illustrate
violent
urgent
obobo
esiesi
khabe
ẹguae
vẹ
earn
talọ
olodigba
uwerhẹn
sad
limitations
umẹwaẹn
conquer
Whether
foreigners
1947
safe
forms
company
beneficial
Language
visitors
donated
Jẹfta
loud
Pray
saving
situa
alert
baa
Uyi
respectful
nọkpa
zanzan
zihegbe
commands
Banabas
tremendous
entering
ugboloko
uvun
Izinegbe
mwamwaẹn
husbands
segbe
media
tests
text
asanikaro
baby
everywhere
esagiẹn
walked
sought
divisions
seated
entered
sentenced
trusted
ọkaokuo
accidental
Izọhẹ
muobọ
honored
shares
ọkẹnrẹn
Ẹdagbọn
Nọkhua
egbua
Aiziki
ibeleku
ọfisi
Ikporhu
ubọmwẹ
dọ
ugbe
deyọ
urremwẹ
kpaa
Lusitania
distress
ogba
evident
fuẹro
kuọ
ọtẹnmwẹ
constantly
orueghe
olakpa
ifuẹn
imuaẹmwẹ
huọn
Ugamwẹ
stirred
esia
Irina
Alaghodaro
zẹgiẹ
agọ
amuẹntinyan
Filip
balọ
indicates
Congregation
Ẹzẹ
viewpoint
kiri
Akhasẹ
Dennis
burial
mild
ẹde
idaehọ
Ọre
Lọt
Yae
accused
suan
Esi
nọdiọn
vin
sọe
prayerfully
weapons
Malakai
Ukpamuyọmọ
khuẹ
ayahọmwaehọ
ẹdẹdẹmwẹdẹ
heavy
collectors
protected
accountable
uwẹnrhiẹn
Shortly
brochure
Nẹdẹ
thereafter
Ẹtin
Paradais
border
synagogue
directions
itengbemu
honest
foundation
either
access
Applying
beginning
passages
persuaded
rejoicing
buy
safeguard
infancy
extreme
raising
obeyed
cold
112
twice
balance
abusive
moment
resurrections
pregnancy
cultivating
greet
priority
mere
admit
Oliver
September
Tagalog
Church
settled
boots
released
Portuguese
assume
Well
worshipping
solid
Varter
conscious
garden
Galilee
1962
opens
doctors
commissioned
priceless
belongings
Barr
initial
marry
pity
Furthermore
platform
accommodations
clothe
distinction
lacking
symbolic
79
provisions
complex
ogiasọn
appears
Inọk
ẹkokoudu
eagerly
weeds
Yaroslav
Mandalay
ruan
delivered
ilekhue
played
guarantee
okpamẹ
Luke’s
consciences
temper
throw
bank
indicated
finish
lifesaving
sẹrae
arranged
tribes
commend
hospital
illness
Help
huge
physically
compass
disposition
Christianity
ovbimwẹ
tsunami
Republic
judged
weaknesses
faces
Looking
imperfections
140
Dannykarl
Sakiko
owned
Mother
crown
zone
depth
wọn
lovbiẹ
missing
Sea
vbobọvbobọ
badly
George
Warwick
zowẹ
induce
presenting
expand
release
kingship
deeds
expenses
courageously
Nii
supplies
Imitate
upholding
nọkpọlọ
Ẹrhu
Zẹdekaia
restraint
ọgbagbọn
Belfast
happily
judicial
Ugha
Compare
reassure
discerning
guilt
qualified
ọtien
Heli
reminds
unusual
warmly
symbolized
empathy
disown
explanation
swords
prior
restoring
2016
shame
Bibles
crowds
fearing
egg
Marie
golden
calf
lahin
John’s
remote
commit
Judas
protects
121
north
torture
viẹn
COR
island
sharp
cherish
planned
1966
apprehensive
derive
worker
Guide
contribution
dream
walls
leadership
candidates
bodies
thanked
139
worry
cost
joys
treatment
hardships
forces
Every
Arọndẹ
regain
foremost
animosity
okpọmwa
habits
identified
dewuarorua
disputes
Sadusi
indication
testimony
deserves
worshipped
disposed
Further
chapters
sincerely
description
seize
topic
Ezik
Samaritans
sorry
Ọnrẹn
listed
clothes
Bank
earth’s
aged
esiọre
university
Nazarẹt
fun
fuan
emotions
duties
Worldwide
Accordingly
Osi
Eve’s
giẹ
tactics
abundant
rhovbiẹ
intended
confronted
akọwe
revised
listened
isasegbe
victory
clergy
2012
fruitful
printed
Patience
couples
associating
Nagbọn
vidio
noteworthy
referred
Goals
ọmwakọmwa
riders
Khẹke
flowers
submit
dust
PS
Find
Elders
damaging
adults
describe
grant
ethnic
fieghe
KỌR
readily
Scotland
sang
ekpọ
cruel
contrary
rhinrin
impress
Ni
Pọtifa
remembrance
fighting
distinguish
shy
couple’s
86
central
reality
merchant
opposite
124
missed
pregnant
discourage
Ẹlaija
idolatry
largest
kẹre
abuse
ibozẹghẹ
Jacob’s
passengers
gbikhaẹn
demand
gẹdẹgbẹẹ
wheat
returning
songbook
ọkhọnmwẹ
communication
ẹro
Saina
Japanese
requirement
advanced
unless
gbuẹ
tolerate
Ihuan
heir
Taitọs
impression
combat
Ibo
spouse
kristi
connected
ukpogieva
acquire
Go
copies
bondage
earthquake
2010
conversations
motivate
Odibo
Thessalonians
Ovbiẹre
children’s
adeghẹ
1995
recalls
khua
execution
preserve
mistake
ibuohiẹn
dark
osugi
conducting
seats
outline
Ifuẹko
Try
facing
Maan
weekends
ititi
Mainọ
suggest
Mozisi
murder
Interestingly
bannuan
disciplined
Nazareth
Isievẹn
igbohiotọ
schoolmates
misuse
eye
azẹvbiro
records
Igba
Adams
across
drinking
idiaghe
garment
executed
Come
Index
suitable
weather
ẹkẹ
floor
ultimately
gradually
arrangements
bit
placed
Honor
strangers
harvest
Ohẹn
online
enable
Blessings
59
satisfied
comparison
distressed
hotẹl
igiowa
intent
Ekhue
cornerstone
private
utun
parental
texts
4,000
solemn
leads
ọsumẹ
spending
marked
expectations
associations
unjust
gio
weigh
explaining
disastrous
discipleship
preceding
Agbọn
considers
Research
bonds
speaker
Christoph
hinder
lists
overcoming
fooled
extending
Micah
discusses
Happily
commission
inspiration
ekpọnmwẹ
races
flower
politics
ẹwobi
adesẹneva
esiliva
worn
pagan
adesẹ
methods
carrying
tin
Ze
disasters
guọghua
arriving
Everyone
iho
Return
adultery
satisfying
classmates
respected
physician
Simply
ihegbe
worries
ivbiẹre
orhọ
midst
calling
flock
Johnny
numerous
Bulacan
looks
process
Everything
claims
rebels
severe
Mutsuo
referring
amount
Messianic
sasa
nearby
wording
Father’s
ẹgiọn
contained
thrilled
engaged
Arimathea
izigan
Fero
River
countless
Maika
assignments
printi
cup
responsible
etian
soyaya
leader
ohoho
diligent
azamemwi
rọkhọ
willingness
recover
ughugha
print
Colossae
Abraham’s
clothing
roots
scroll
ibata
zagha
opposed
conducted
appeal
embarrassed
Orhunmwu
zeze
sometime
egberranmwẹ
wannọ
rrọ
dearly
Hẹrọd
Yi
considering
Friend
lyrics
expresses
Beyond
Okọ
ezọbu
Easily
1937
Personality
video
Albert
similarly
oppression
Lahore
Atkinson
Florida
Sylvie
readers
FROM
Empire
intelligent
Stéphanie
warnings
moments
w16.11
disregard
category
standard
Down
royal
broke
fool
Golden
Mirjana
1961
assistance
Yantzen
II
Leaving
virgin
captive
sympathy
fourth
Meanwhile
Kurganinsk
measured
History
items
gaining
Doratine
Nao
kolkhoz
Led
title
rewarding
sorrow
kinds
Devil’s
Noma
Stewart
possibly
writers
Child
planning
winning
tasted
restore
troubles
fondly
maintained
Describe
Lett
guides
5,000
rebellious
Thankfully
Num
reputation
proclaimed
represented
paid
introduce
Grigory
picked
timing
succeeded
Bosnia
Throughout
exist
causing
logs
outlined
dedicate
siblings
300
blameless
officials
temporary
Tract
distant
imperfection
distribution
feature
convince
videos
resulting
partial
Internet
Gehazi
sinner
whereas
begotten
YOU
exemplary
Here
current
turns
sanctity
talents
Danica
conflicts
Sultanalieva
author
612
condemned
Sennacherib
rendered
crushed
1980
obligations
materials
Sprout
Atsuko
shepherds
Milky
galaxy
regret
Reuben
charge
prone
mentions
tested
Show
Toronto
Jude
suggestion
builders
backs
200,000
Russian
introduction
arrested
1929
Jensen
ephah
tradition
pour
hesitate
Alyona
desperately
profound
2005
Any
Chronicles
Raya
hunger
season
w17.11
figurative
Olympic
commented
Earlier
striving
shepherd
Madeleine
represents
deepened
educational
defending
Students
Continue
effects
Consequently
Court
affairs
Publications
skills
State
Zephaniah
corrected
Otherwise
Mar
shout
Eventually
keenly
haughty
Words
thieves
Irish
thrilling
Me
Johannes
failure
exerts
leaven
peer
inferior
comforts
resurrect
1944
w16.12
conquering
weaken
snow
favorite
loneliness
app
securely
Often
dominated
restoration
life’s
upset
Victor
rebel
Neh
hometown
wishes
delighted
rules
Actually
Speaking
Matthews
58
Xhosa
miracles
happens
Vinter
gems
potential
rage
63
acknowledges
northern
Time
64
Galatia
destruction
impulses
depend
spreading
humankind
Herod
oppose
reigned
Sneddon
excessively
rejecting
selling
measures
Gaby
orderly
completed
magnificent
Lot
Chimpoesh
numbers
punish
exercises
Claire
stressed
lowly
solely
divorce
HOW
outworking
underestimate
signs
owner
finances
adulthood
550
isolated
deception
emphasize
assure
additional
struggles
Ida
Terms
descendant
hearty
generation
sentence
engaging
apologized
conscientious
Feb
Aramaic
level
belonged
neutral
literal
steadfast
swiftly
lofty
ball
renewed
practiced
Trazel
resort
reliable
exchange
somewhat
backgrounds
2009
deliverance
centered
identifying
regardless
yours
Renee
financially
follower
pearl
armor
requests
Back
reproach
buried
Nain
police
meantime
memory
Potiphar’s
miss
Asunción
discernment
rebuilding
context
1,600
openly
Off
auxiliary
repair
rush
unites
preacher
Molohan
liked
Judea
Judaism
Wallen
straight
containing
127
101
Joy
Sachio
rewards
eternity
Jah
section
Armageddon
remove
extended
presentation
Become
commandment
1965
costs
stands
immigrants
sperm
phrase
wrath
yield
strengthens
perfectly
seriousness
Ummi
impartiality
throne
WE
judges
tomb
silent
contentiousness
anguish
anywhere
forgiven
Power
fast
capital
discouragement
iron
harder
Has
impossible
1997
Dictionary
Much
collected
restrain
capable
broken
Italy
Above
Bath
relationships
armed
scattered
wedding
ungodliness
originally
potentially
paying
transform
merits
rulers
entrusted
unreasonable
tour
breastplate
Praise
Family
harmful
lodging
unable
corpse
weighty
Nonetheless
onlookers
annual
doctrine
locked
greedy
differently
sufficient
bloodshed
dogs
boost
JEHOVAH
involving
continuing
Lamech
risk
Bear
retain
womb
prosperity
bones
wings
heed
scene
curse
Victoria
beggarly
translations
facilities
handed
envelope
1945
fortified
Joyfully
Lord’s
refreshing
Nothing
grandfather
141
seeming
Far
Rudy
perceive
safely
reinforced
comfortable
contributing
Netherlands
speaks
reign
unnecessary
incident
Nación
empty
eating
devastated
fit
secret
Pentecost
threatening
remembered
directing
foot
William
1948
taxation
booklet
News
select
wrapped
virtually
needless
entitled
belonging
agreement
hot
unloving
mankind’s
achieve
enjoying
weight
diseases
wholesome
gladly
electronic
Too
Besides
Dorcas
illustrations
shocked
individually
amid
Enoch
WHEN
Long
skin
river
attempt
Ezek
counterfeit
firearm
gates
entity
offices
Thinking
fame
greeted
Şirin
Had
homeland
discover
genuinely
Nisan
quiet
guarantees
stability
obtained
94
Martha’s
damage
host
Lefèvre
topics
French
cultivator
research
demanding
affections
fled
o’clock
bitterness
Alisa
impart
welfare
neighboring
Sivulsky
cells
enjoyment
Children
British
avenger
observance
Sascha
134
approaching
badness
heartache
afford
impulsive
simplify
court
longing
prominence
stadium
attractive
marrying
religiously
generally
adapt
traffic
Tandroy
rendering
won
wealthy
suggested
subjected
defend
falling
66
forming
Thecla
double
developments
procedures
Persian
abortion
characteristic
top
belt
interfere
highlight
1941
praising
brother’s
Judge
blesses
handled
obligation
Abel
thereby
Lene
Third
stealing
Ọghọ
Rhiegbe
Rho
eban
ohanmwẹ
nọkẹre
egbakhian
Evbare
hẹe
imuanẹmwẹ
ẹkhuia
69
kinmwi
ufumwẹ
Rut
ẹkhu
ignore
gheghe
zaromiẹn
igiuhunmwu
Zẹfanaia
ukpunu
sọsi
dagbẹn
irri
lahọ
emotọ
isasa
ogue
guaẹro
Ọdọ
ownership
Obẹlẹ
ọtuẹn
Ẹrhiọn
kpere
enabled
card
Ọgbenbe
imudiaẹse
okhọn
ilavbodẹ
Lamẹk
144,000
ẹsoghodan
Nogieha
UKPO
igẹbọ
obọkpa
Emọs
rhaan
Titanic
Ẹfe
Igue
nikhua
amamiẹn
Ayayẹro
Gbogba
ran
Aza
okpẹvbo
punishment
susẹ
Fot
accompanied
ekpa
ekhoẹ
asan
atẹ
wẹwẹ
Li
Okhian
okhọngborrie
Uhunmwu
Rubẹn
Finch
họemwẹ
eyist
Enọyaẹnmwa
emuẹn
odukhunmwu
barely
128
ahọemwọmwa
EMWA
ọgbẹlẹzẹ
olika
Ọvbi
Mambetsadykova
Rehab
fiangbẹe
ọmamwaemwi
vberrio
rriabe
ohiẹn
ỌTẸN
elẹta
ẹdagbọn
agabagebe
Education
Viẹ
Mudia
ọzuọ
ogiukpo
Kedẹs
ẹyẹn
yinrin
Uviẹn
Hag
weep
ministers
ọmokhuo
watchful
Facebook
gbagbae
zan
ebiebi
Ọgbagbọn
Esa
imina
lẹfua
adazẹ
adogbannọ
87
Fred
objects
109
muẹmuẹ
Samuẹl
Hoẹmwẹ
masini
Mizuho
Josephus
kọn
amagba
stumble
Saransk
vian
Ga
egbowa
lẹruegbe
Hẹ
alagbodẹ
edọmwadẹ
Kha
Ugbẹkun
Khin
1993
Ẹẹn
Ẹo
izrẹl
qualify
vee
sowing
vbua
igiẹmwi
idugie
inugba
ẹkun
Iyayi
kpẹẹ
okotọ
Zẹf
Erika
Asikoko
Bright
Ta
Iro
ewaẹn
dọmwandẹ
Osẹ
woo
wabọ
ẹvbi
ovbiẹre
Rhọkpa
ughaẹdẹ
Jese
asoro
Stadium
ikinnegbe
Ọwara
Yankee
rhikhan
igbaha
Dọkas
Krọnikol
Gie
tan
Ban
Alughaẹn
ivbiran
olotu
ọgbenbe
hee
ute
ọdẹn
Abọ
urho
ebubẹ
tiere
giẹgiẹ
Lae
winnaẹn
ọrhuanegbe
ozan
mọmọ
oyọnyọn
ẹrherhe
ọfumwegbe
Inu
Loo
Mezaia
atlaẹn
urhọmwẹ
gbannọ
Kherhe
yaba
Idẹn
boat
Put
cling
troubled
400
subsequent
Kindness
failing
breathing
Sẹnakẹrib
characterize
unfulfilled
Eliaikim
founded
pile
puts
vbiẹre
method
Okuta
sickness
homeless
1999
meek
lightly
wearing
demonstrating
Avoid
expecting
cure
waited
maybe
ikpọka
teenagers
disunity
Jericho
attacks
apostates
fishing
soil
spiritism
graduated
endeavors
youngest
Focus
sworn
76
parable
sources
preparation
1964
gbennẹ
attracted
68
guidelines
oaths
highlights
occurs
okpa
surviving
learns
spectacular
baeku
confined
Nathanael
academic
crave
Activities
wondered
Developing
warn
settling
Wycliffe’s
delaying
uniting
pursued
vu
Truly
6,000
Lele
Agag
1994
beds
Idaehọ
inscribed
orinmwi
begins
phonograph
GAL
ẹsẹ
condemn
enslavement
liberated
cautiously
glorious
sandwich
ọgbalegbe
stalks
egotism
dispute
restricted
sites
possess
Elihu
Hospitality
map
sending
indications
withdrew
185,000
Svetlana
Nokaro
advantages
Jephthah’s
Believe
realizes
ignorance
rashly
drug
excelling
arrest
accordingly
Suffering
objector
142
addiction
ohọhọ
Youths
uproot
Afanvbimu
yagha
evbakọnrẹn
Bẹtẹl
urhuẹvbọ
promising
abẹ
onurho
daunting
Ihua
lips
distributed
guaranteed
likens
tactfully
Nọyaẹmwa
fiẹ
liberation
tuorre
chronic
usẹ
Medis
ọmobọ
syndrome
Imọto
smiled
gbalọ
Rhiegba
apart
Nabal’s
runs
courts
Ogie
Ghaa
copy
Bethelites
Biẹ
Committee
assign
games
sinagọg
lure
zin
ebi
guaero
Ericka
Ukpokpo
statements
ghete
Denmark
kpolo
Yọ
degree
medicine
Author
ugbemwẹ
trees
workplace
Azẹvbiro
waengbe
trips
gaga
Appointed
Ota
Shunem
dignity
trait
Uhukpa
dramatic
Ẹbo
Asọn
digiẹn
ghagha
Compassion
blinded
announcement
belief
Giver
suẹe
arọ
Usually
unitedly
divinely
ugbẹkun
collector
commendable
Ọgbọn
Tua
depriving
outweigh
Likely
1930
forgotten
Zacchaeus
colors
injustices
honors
generosity
Ovbiyokuo
karo
125
Giọg
machine
smooth
ẸGHẸ
Shinar
universal
ẹnvẹlop
Mai
yẹ
reply
ubiẹmwẹ
television
movies
vannọ
grows
udẹn
grapes
descriptive
Ẹkpo
Judeans
Certainly
ukpogienẹ
iwegbe
knees
arovbẹmwẹ
spare
Grave
ekita
Ọbo
officers
humanity
gets
dressed
advances
destination
1960
preparing
worksheet
materialized
sinned
distributing
widows
exhausted
discrimination
mostly
untouched
whenever
soldier’s
Planning
distorted
producing
permission
theme
husband’s
contributes
harvesting
ancestor
Please
Gentile
misusing
165
ancestry
laugh
honoring
footwear
planted
Willingly
mine
Offered
105
lifestyle
leather
searched
Setting
advertising
meals
mistreated
rejoiced
radio
strips
bent
captivity
embittered
pressured
incite
exercised
create
bitter
subjection
revolt
dinner
colored
consult
underscore
willful
bloodguilt
advancement
deepens
Jr
Ethiopian
inspiring
Happiness
Brings
steal
denial
consume
otherwise
supporters
parties
nun
Stand
club
cars
enslaved
inert
African
thoroughly
colleagues
distance
it’s
Latvia
prevail
nervous
Whoever
brain
childless
illustrates
plates
wind
avoiding
reform
stumbling
distract
naturally
fortify
longed
Salvation
undermine
repented
roof
Showing
restrictions
delightful
exposed
rooted
demonstrated
ZECH
market
forbid
street
goes
Don’t
Professor
sadness
readiness
volunteers
Endurance
watching
inherited
accusation
shocking
suddenly
Years
borough
featured
insulted
intimidated
Maintain
inclinations
hate
acquaintances
despair
violate
supreme
starts
ignored
diligently
initiative
childhood
claimed
Earth
unlikely
square
cheerful
proclaim
identifies
imitators
trailer
focuses
IT
publicly
lingering
Tallinn
noble
weighed
citizens
sung
listeners
Thousand
elementary
Year
Reign
Upon
p.m
cherished
introduced
villages
meaningful
declare
Local
clothed
embarrassing
BIBLE
Corinthian
supplication
wound
143
sincerity
extra
breathe
ladies
separated
miraculous
opinions
flying
staying
washed
contemplating
inconveniences
cleaning
Rehoboam’s
unmarried
Someone
aggressive
tendency
prospects
wounds
permits
insignificant
Glorify
striking
slow
urgency
cautious
Obviously
OUR
monthly
improving
admonished
Leads
divide
watched
plain
craving
mastery
accompany
family’s
ensure
moderate
assembled
almighty
variety
antitypical
apparently
adjusting
hardworking
hug
Scripturally
attendance
secretary
agony
Jesse’s
somehow
utmost
Ionash
ratio
postpone
taste
1989
subtle
denied
permanent
95
Men
offense
lift
trustworthy
wholeheartedly
householder
reluctant
Suppose
embodied
cows
cocoa
descended
ministerial
symbolically
flows
East
West
composed
marital
necessities
rightfulness
seemingly
reassurance
oversight
Adds
Sadducees
lifted
temptations
temporarily
rebelled
unimaginable
utensils
inherit
w17.05
depressed
sister’s
permitted
inhabited
ruler
emblems
reunited
combined
receptive
cancer
printing
extremely
fifth
Kyoko
Things
Fajardo
Putting
displaced
richly
beneath
kansa
vowed
Sierra
disturbing
reside
confinement
presents
hesitated
disturbed
theft
participants
Athens
waved
unlimited
confirmed
unscriptural
quit
peacefully
117
Apr
Swift
income
Jared
Urdu
ashes
expelled
poured
girls
woman’s
Assyrians
proudly
sheba
employer
gross
behaved
healing
stories
community
dominate
Seeking
Shimei
spirit’s
billions
equivalent
appendix
decisive
occupied
herself
rescued
Follow
rob
deserved
relied
grooming
volumes
tool
range
refreshments
normally
Especially
acknowledging
finger
developing
skilled
anxieties
mixed
guiding
detail
Safeguard
keeps
slanderer
enriched
notes
radical
lookout
ON
judging
disfellowshipping
appealed
reasoned
cancel
hole
latter
serpent
Notes
corrupted
Brandt
Shishak
hindered
headed
thinks
tempting
Russell’s
Olivia
experiencing
intentions
Ever
Immediately
recounted
Reylene
Timothy’s
fierce
positively
Might
strok
emphasis
Humility
ewindo
converted
websait
magistrates
gbẹ
osẹe
prejudices
Ughugha
Rhiema
roads
helper
fulfilling
Akugbe
ọmẹhẹ
ivin
okozẹ
reassigned
characterizes
fears
misunderstood
hẹwẹ
Deziẹn
Erhan
distinct
Tobijah
Jedaiah
egbọre
writes
outset
Jedaia
yọre
Igiọdu
Diuteronomi
strikes
size
practicing
Neither
ekhakha
Sadiq
elikhukhu
Babylonian
Nu
demands
footsteps
fewer
preachers
Ẹdogbo
sleeping
establishing
Utikọs
faẹn
eghaẹvbo
ZẸK
Rinmwian
Thanks
owẹn
ibisi
doubts
ọgbugbo
Keeping
disrupt
rhorho
loyally
punished
corulers
shepherding
thorough
Ovbimwẹ
zuze
respects
Ẹtiopia
ọza
araba
promoted
rriẹ
Iyi
burning
Arriaisẹn
Jọdan
Overcoming
Levites
Ọdiọn
wear
Nikodimọs
Igbaha
fuẹ
Lekpae
touching
Ladian
minor
ọtakhọ
approached
emwata
Nezlobnaya
160
itanẹt
orhu
rape
flourish
wall
widen
uncleanness
bears
EMWI
Spiritually
ọsuohuan
fills
egedege
barren
unresponsive
ovbe
adopt
influences
ẹgẹn
ediran
olokun
Josh
arriọkpaegbe
pioneered
obviously
ovbiogue
Nehimaia
seat
minister
ẹti
orhiọnkpa
ọrho
equipped
avbiẹrẹ
Melissa
Poverty
Assyrian
accepts
anymore
settle
fiangbuẹ
warns
Feldbach
ukpọmọkpa
stalk
adrẹsi
commenting
Rahab
AI
Evening
Meal
Nọkpia
isinmwiegbe
Jẹriko
schools
ẹkete
fiyekegbẹe
ukpogie
kiekie
Erẹrẹ
amuroro
stepped
deliberately
crossed
evaluate
ọmwaikọmwa
lẹgbinnaẹn
erriọvbe
Masidonia
136
remembers
Nataniẹl
awanwan
ẹkhọe
revision
objective
Itanẹt
unleash
NE
ulẹmwẹ
ivbabọ
respecting
wrongdoers
dinnodẹ
titi
iweva
khan
ọfuan
push
Rhiẹre
unfair
accidentally
bẹkun
lọghọe
disobeyed
Were
giẹn
Tiffany
ọkiẹkiẹ
wabọrerua
dobọyi
rhurhẹ
ọyobọ
ocean
Pẹntikọst
uncontrolled
passion
khuan
ohian
ogie
KRISTI
ỌGHE
reminder
widely
hihiẹ
adding
ọkpadin
gbogiẹ
telephone
Azẹ
gbokhuẹre
Ghi
furious
amuegbe
75
ahoẹmwẹ
sudu
okaolotu
96
ẹghe
ọbuohiẹn
nodẹ
Eghian
kẹkẹ
Hae
sẹẹ
perfection
acknowledgment
tire
Testament
Jason
fertilized
ikhuiwu
Jairọs
beat
performing
expansion
rhiọkpaegbe
latest
ITAN
definitely
Listen
Agiẹngiẹn
aga
Jephthah
Ismẹl
grasped
encountered
prisons
arranging
shoulders
ifuanro
Ikpia
baptizing
orhiẹnrhiẹn
Evbibiemọ
ekhẹn
Kpọnmwẹ
passersby
drama
Mari
exiled
Kpaegbe
trembling
khulo
oyanghan
Umozo
showy
ỌMWA
wẹnrẹn
gọ
Orukhọ
happening
Serbia
impartial
Iyẹe
kuẹn
Justice
Ive
Ohoghe
Seek
uye
bars
bought
locations
sọregbe
skinned
disobedient
historical
wainwain
gbii
mob
expose
Without
dede
104
Ibata
persevered
Hutter
Cultivate
baptisms
suẹ
threats
129
122
Ikẹkẹ
defeat
triggered
Amagẹdọn
resentful
Levbasevba
Viọ
Emadogua
sensitive
elements
ibọru
overnight
hastily
Ọgbaroghe
izedu
Elias
ohọ
follows
wanniẹn
lucrative
Olga
displays
necessarily
foo
giẹre
Part
Hollywood
yobọ
Asks
owns
tune
run
Bodanis
fiery
mass
Anxieties
raises
uncertain
Pursuing
morality
ekhọesi
ukpẹ
manslayer’s
COL
declaring
Jack
orders
Halloween
handwritten
Following
cited
expensive
KKK
leaves
sober
dishonest
Yangon
28,000
establishment
tightly
Elisha’s
hurts
Luzon
wielded
Jehava
stir
pronouncements
Arthur’s
favoring
Nueva
refrained
1879
error
rust
moth
miẹke
Gba
wept
begun
frightening
innermost
devote
space
None
1951
trivial
patients
treating
illustrated
withholds
behaviour
alerted
excuse
bie
pause
arrives
preparations
etien
maker
station
swear
complacent
processed
proselyte
Obẹd
chaos
executing
ọrẹ
Ihẹn
reproduce
emphasized
extends
Winna
Zambales
Tarlac
Ecija
sustain
violated
systems
Freedom
Hoz
va
distribute
nana
scorn
tendencies
Leah
awareness
Ibiẹka
khaemwisẹ
householders
Ematọn
Pharaoh’s
Yotọ
drift
concentration
Maxim
ẹkpẹtin
defines
Encyclopedia
Book
mustered
Imiẹnfan
expectation
designated
givers
core
ọwiẹyi
receivers
Rutland
Amos
fly
Goliath
misleading
smoking
streets
gaps
holes
ovan
1953
igbọn
disappoint
breakfast
607
lesser
d’Étaples
proceeded
complained
Seventy
ruọ
Holding
etiẹn
ofigbọn
Prior
vigilant
Yuen
Nancy
Okiekie
beware
unexpectedly
guọghọe
10,000
Benjamin
eighth
ẹwẹn
pirhipirhi
molded
Dalene
Given
everyday
Zealots
swept
Skirt
Udazi
pieces
embarrass
meets
inmates
soothed
Ehọnrre
Reflecting
decline
997
courtyards
emwidamwẹ
strove
reassured
Hundreds
1520
Which
picking
Noncommissioned
Officers
qualifications
larger
dominant
shameful
Zẹdẹkaia
Odin
Pioneer
deceived
vantage
midweek
Noam
Hope
Chomsky
evidenced
kei
miuhunmwu
sọyẹmwẹ
Ending
funeral
blasphemer
construct
Harold
Appropriately
incurring
Gog
doubtless
hostility
Magog
Leading
pretending
Maa
Persia
Cyrus
foregoing
committing
Ikhuo
bridge
lover
284,000
dọmwade
366
1891
agbaziro
280
niẹn
60,000
recognizing
rhe
Ahitofẹl
dismissed
vows
sugiẹ
tacit
hogha
Ananias
Malagasy
citizenship
reminders
worshipper
secondary
Dinmwiamẹ
Ẹde
fa
affluent
channel
character
ọtiẹn
parked
Hanne
Oh
slip
ihue
dreams
sooner
minimize
foolish
Meditate
isolating
Jairus
demanded
correctly
reacted
centers
gọvina
incomparable
Oghodua
klọb
Anglican
ogboi
Mildred
Willett
catch
Uhanhan
namely
demeanor
ọbude
Mishnah
evbibie
Keritot
price
worthless
w17.02
muẹnso
sparing
yaa
enjoyable
Whose
Increase
TIM
etisa
criminals
summer
weightier
Theocracy’s
reads
Ogiohẹn
tuọ
HIB
Taylor
Ẹdẹgbegbe
Themselves
difference
teamed
rash
constitute
hasty
depicted
vivid
ighọ
consistent
Nöhrer
guẹzẹ
Recognition
Wisdom
Sirach
Ecclesiasticus
Orheyerriọ
exception
swearing
differs
approve
round
Balychy
collect
Toward
deciding
rod
supplied
Batsiẹba
yẹnyẹn
patriarch
girlfriend
tongues
Cornelius
lẹgae
empire
hybrid
pirhi
Contrary
episode
zọmọ
fertilization
element
inordinate
cm
etiọn
1902
Zion’s
Zealand
overheard
weakens
Uruguay
ẹgun
Montevideo
dunmwu
ọdafọn
tidy
arhuanran
dẹlẹ
ovbialeke
khuẹn
consciousness
compromising
Wọrhọ
atuẹ
Emwiorhọ
Texas
poses
intensely
Tabita
rhunnwuda
Gomorrah
Sodom
Consolation
brazen
contemplate
marvelous
highlighted
enọmba
reproof
grandmother
erode
kọmpas
heavily
JESU
windows
Old
Strip
149
Recently
constant
Train
NI
Veracruz
eldest
vulnerable
Dies
UGIE
Umiẹn
glance
Belgorod
depends
piece
mwaan
AYERE
IS
UWU
sat
lightning
Akota
unworthy
ghughẹ
intervened
Dorothy
unwillingness
equalizing
separation
Shemaiah
Kaan
ọrhiae
divorced
decade
yard
joining
addressed
Growing
Ikinkin
Marina
Magazine
Bindery
Sydlik
hungry
grumbling
administrative
zaghae
regretted
Commissioner
lyingly
w17.04
formal
Vulgate
AHOẸMWỌMWA
tense
Iruẹmwi
parent’s
muotọ
Maria’s
recalled
unreserved
massive
deceased
Kiana
leg
515
imitated
nọkpia
instilled
40,000
accomplishing
bottom
tenth
klas
Ọtokha
circumcision
Yourselves
wabọre
lovable
rhiẹrhiẹn
gẹdẹgbẹe
Rua
prey
Tila
corresponded
Naryn
flattering
ọghẹ
inactive
calibrated
proof
specialist
skillful
granting
Ẹdẹdẹmwẹdẹ
Nicodemus
acquiring
prevented
archives
Public
Ulf
Tertullian
check
burst
Rrọọ
pushes
foretells
Palestine
Simon
Ikpẹ
services
mọẹn
ọkpọkpa
reap
Meeting
bully
Up
Cebuano
student’s
Daily
Messiah’s
popularity
kuẹi
useful
usugi
pained
Miẹnfan
Okuọ
handling
B3
Appendix
ọbaligie
cursed
Hormone
toil
confronts
Insight
Rabshakeh
victories
JOHN
nearing
hẹnnẹ
characters
Queen
debt
ekan
RRIE
pair
attract
LOVE
akpakomiza
27,000
automatically
w18.01
Simiọn
Open
committee
honesthearted
vbirhi
skillfully
timely
Aegean
avenues
nice
Iyeke
partners
lo
ẹkpẹn
fearless
garage
Antiọk
inactivity
roiro
idunmwu
attendant
MEMORIAL
rare
ATTENDANCE
Fruit
gracious
remembering
thanksgiving
reliance
guakpa
victims
Sisiak
spears
Super
Typhoon
tempered
Haiyan
paralyze
approaches
537
sanctified
ukankan
Sinmwi
rha
1963
Rhiọ
Ighẹ
Riana’s
slipped
Riga
praised
lessen
Rẹnrẹn
exquisite
indispensable
Oseghe
Herd
Ọdakha
ahianmwẹ
comprehend
scholars
appreciative
suẹnrẹn
needy
awe
350
restroom
pick
Tobaijah
instinctive
Otagbọn
cultures
sticks
excited
plowshares
overwhelming
khọọn
yaẹngbe
Academy
Caiaphas
itowa
falsely
akiyẹyẹ
Ẹkpẹti
driving
cultivators
Gomorra
ẹguẹ
Ugbẹn
yuẹ
Gualọ
exhortation
inculcate
Fiyekegbẹe
osuan
88
ivbialeke
attentively
cake
egbẹe
materialistic
harmonizes
kẹkua
knocked
Using
victim
extensive
manifests
Masih
You’ve
recovery
reproving
Madison
unbeliever
Ananaias
w17.09
involvement
1939
throwing
swift
HIA
indicating
cart
mom
VBENE
ZẸ
khuẹnniẹn
programs
Ransomer
cleanses
enibun
arguing
Yufretis
certainty
ẹwanniẹn
unworthiness
fought
Kọniliọs
scourges
erinmwi
Saimọn
eyẹ
fifi
Asa
idagbo
sẹlẹkẹ
Ogue
typewriter
waist
acquainted
Lia
Awarọkpani
gbaan
OLINDA
SERGIO
satisfy
bẹdi
uhiomwẹ
karavan
ivbiẹ
igbaroghe
ukpọmọ
Ẹn
Siemaia
dignified
lughuaẹn
suit
sacks
removing
Differences
suggests
Hiunsi
Nazis
alamoghẹ
Gill
Anton
exam
KEGHI
MA
Wise
survival
536
doors
Brown
Rusk
Santos
Damian
counts
Ugbẹnsọ
scribe
development
polite
mailing
billion
somewhere
instruct
rearing
Shebna’s
120,000
speed
insurance
Luigi’s
họẹn
advantageous
Ọkhọ
prefaced
Colorado
Suẹn
altogether
lets
ọsihuan
1895
typical
march
Poetzinger
glorifies
delivers
1924
confront
Klaus
Oba
Carl
addicts
irresistible
polygamy
outright
Stocks
weapon
Building
Sign
mobile
apps
intact
walks
5,400
extorting
Mọ
greed
contends
1911
Advertised
attempted
Ẹgogo
prefixes
comparing
Mwa
suffixes
instructions
humor
Changes
Lives
Rae
genealogical
ekọ
ROM
Schladming
progressed
Chris
Boston
Oghian
enthusiastically
rows
ekhaẹmwẹ
bleak
immortal
upbringing
Ọmwaikọmwa
ẹwaen
examines
akọn
ọlọkọmwọrhu
resurrecting
gesturing
urọnghọn
Kie
Khaevbisẹ
Igbọvo
vibrant
ọkpankpan
Rhan
Kpataki
akhe
tuẹin
occupation
ikpamẹ
length
dihoi
Odekun
hawa
rrioya
taara
ikueta
okhiọnkpa
ẹho
convey
Efoto
sobọ
prosperous
Igbinnoguo
gelegele
unwavering
Galilean
despised
khirhi
ole
zọe
Imuegberriotọ
Ọviẹn
Samaria
ikpokuta
isinmwinegbe
VBỌ
burglary
neutrality
Pẹnina
plus
rhunmuwda
Exerts
sobering
nurturing
storing
Oxford
laọ
ekokoudu
Yan
tara
ameve
gbẹro
overjoyed
ugbaro
awarọkpa
integral
rhanmwẹ
Mercy
footnote
Black
hotel
classes
vbu
Ivbie
Ẹlaihu
incidents
aghanghan
vbọrhirhighayehẹ
Urhu
artistic
oguozizi
wiẹn
Dinnodẹ
ọya
boarded
Liverpool
Ruẹn
Ihe
fọfua
alimo
Bẹnjamin
oduma
khia
ziga
Ọka
damaged
traumatic
unfavorably
akhaẹn
137
umaro
Zinegbe
rhumwuda
arisen
Kaiafas
Imu
Fan
113
Ekpakpasusu
global
participate
ui
Renounce
heartwarming
rent
ẹrhẹe
oghunmwu
lao
PIT
aguakpa
wuegbe
disappointed
intensify
Ẹzọ
ohoghẹ
sikan
ikhọ
epilepsy
notion
ọwa
eagle
Ọguọmwadia
Ikpemehe
Arrioba
JỌN
behave
Khu
odọ
91
hardly
ebiro
Brazilian
intanẹt
owara
Sairọs
Fittingly
unthankful
sends
scale
Uniọn
Householders
Generous
Control
astray
Erre
iyin
wondering
miọn
Kayla
mortgages
Waa
yegbe
Agbaziro
hunwan
Adesẹ
ehẹn
ọgbehẹn
Adọlọ
ibuanro
Ukpa
Ahoo
star
Umẹwaẹn
musoẹ
Itohan
irhiọha
KỌL
Uzaia
egbewọmwẹ
publication
Amọn
Fiangbuẹ
prophetically
prime
relevant
Eban
minutes
itan
tiẹ
Couples
Free
Nation’s
Mexican
unnoticed
Pesia
mugbọ
code
ovbehe
Vbọre
Ukpọmọkpa
fails
ọghọe
1974
MIẸN
German
compares
imprisoned
kpee
truthfulness
gho
Peninnah
Eutychus
misery
fervently
Pursue
Atẹns
blue
khama
totally
Eternal
blows
observation
sufferings
114
wasn’t
valued
ingrained
Prevent
Vbozẹe
khekherriọ
Rape
GHA
sprout
unrepentant
d’Ivoire
Hitler
Thessalonica
Vasile
chocolate
beans
Coast
Ivory
TEACHINGS
Côte
stroke
TEENAGERS
bizugbe
disciplines
700
ikerhan
couldn’t
proclaiming
keepers
Adolf
Wisely
finds
gẹdẹgbẹ
dramatically
Donald
insults
slandered
colleague
dishonor
Lahọ
enduring
brokenhearted
Esia
lighua
messages
falls
azukpogieva
mails
haughtiness
fair
upright
injured
professionals
Gradually
priest’s
miserable
historian
Dọmwadẹ
Danmwehọ
deprived
amigbo
1933
Zolotniki
Enọwanrẹn
susu
accident
motions
barriers
Moldova
facility
Erhunmwuyẹn
vbọghiyekede
morale
slept
wolves
Euphrates
urria
Vbenian
yoked
Sword
abundantly
banned
522
crushing
hint
lekpa
indifference
schedule
empowering
weekly
Masa
discouraging
exert
proving
430
claiming
drunk
landlord
ona
wp17.1
approachable
Rẹfidim
uvbi
upper
Single
sustained
Flavius
w18.03
Ọkpẹn
450
Boaz
overconfident
giamafon
memorizing
boldly
mystery
Courage
lifetime
uguọmwẹ
oziya
unification
emwiorhọ
enabling
Army
confusing
lifeless
wp16.6
Calvin
Tyndale
Luther
disagreement
Full
ukpu
1976
responding
controlled
Disease
limestone
mudiaẹse
Been
sayings
sentiments
ukhukhu
Elena
Kevin
iruẹn
criticize
Beck
Charitable
nurture
irritation
Toby
rereading
addicted
uromwẹ
translating
lunch
Liz
ihẹghẹ
leukemia
Spanish
Ur
78,000
packed
Blossom’s
Sayọ
Johannesburg
Regardless
wp17.2
Sad
represent
Alexander
inexperienced
legally
Ezikiẹl
brotherly
examining
warmer
softer
92
Individuals
beaten
grandchildren
hannọẹn
77
1908
Eliakim
posting
copying
genuineness
prices
merchants
sealed
Hlybokyy
Potik
Serednye
plea
diminishing
crisis
aguẹ
greatness
insignificance
Medo
Teskey
Ala
1971
ẹtẹ
Vodyane
Euodia
Syntyche
clouds
hie
Afterward
daughter’s
Ninevi
fitted
400,000
Ẹlizabẹt
Makenzie
withstand
Ẹnina
Nyzhnya
Apsha
benefiting
granite
flow
Canadian
grains
hundred
yielded
Oath
Bound
Promise
Jessica
Mavis
Pay
Lẹv
Judy
commonly
hide
Bazely
grasping
Edward
igarawa
Specific
team
Problems
reflection
bolo
Age
foresee
Husbands
Godship
broader
RTO
accomplishment
EBE
ughegbe
neatly
Dustin
elevated
unconditional
Trinity
184
portray
fuels
Ughe
Bangladesh
munọ
owe
formidable
Evidently
Agbẹnvbo
shining
illuminators
advertised
convincing
Gorkiy
Nizhniy
Novgorod
stable
Sumatra
tsunamis
evbibiẹmwẹ
defense
organize
dipped
experts
Brisbane
1992
speakers
Sebastian
Henry
eturari
Harry
Forrest
interact
alter
Ugbẹnvbe
288
3,700
reprove
akhuẹ
Rune
winhin
ighobioye
accomplishments
hiẹ
102
Times
transforming
Crime
YMCA
confidently
304
310
transport
honestly
Hẹzekaia
Publishers
Let’s
mold
Adam’s
overlapped
enene
undue
function
rhiẹnrhiẹnmwẹ
volume
Enọ
unifying
STUDIO
manipulated
enrich
prestigious
beverages
Reject
Worldly
Crown
Chariots
impartially
gap
Results
institutions
framework
oldest
Vance
Packard
drunkenness
Federico
Trial
alcoholic
520
adjustment
Understanding
quarreling
amounted
feast
reception
pilot
incense
1909
We’re
unhealthy
Madre
counselors
cross
hid
unhappy
genealogy
staff
Act
hypocritical
ordered
favorable
louder
Ashdod
Prayer
w17.12
incited
macho
Adamic
announced
pills
Spain
Peshawar
850
oral
Olive
occasionally
volunteer
unwise
literally
profane
2002
begging
charitable
humanitarian
justified
Bo
Thank
w17.01
requested
1382
adolescent
eyewitnesses
exalted
harmonize
stronger
Surpasses
products
expanding
thief
Mic
Chicago
stressful
Bishkek
standpoint
protecting
threaten
design
countrymen
fosters
correction
Lanka
Sri
firsthand
Queenstown
arises
sow
Ejvor
advertisements
Discipline
foolishness
ONLINE
LIBRARY
killing
Progress
crash
preferences
capture
entrenched
Zeal
unassigned
implies
plenty
porous
understandable
terms
151
sacrificed
confessed
Northern
memories
apprehension
Weep
w17.03
ideology
Huntsinger
Comfort
gun
Mauretania
exceptional
Genuine
disciplining
Courageous
arguments
disregarding
memorial
unappreciative
musical
modesty
rural
diminish
scientific
illegal
informally
Modern
cartons
617
Julia
idol
tribute
126
agonizing
schemes
ignorant
manuscripts
essentially
endeavoring
legs
1931
DON
82
Dad
fruitless
compelled
another’s
ordinary
Challenge
Apart
discreetly
undo
yeartext
Titus
soundness
appreciates
Reward
Central
bicycle
draws
dignifies
grand
Winning
Battle
Mind
2001
unlike
unthinkable
foul
dreadful
Raising
abstain
press
reinstated
Syndrome
adverse
w17.08
newspapers
Uncovered
deficient
excitement
Protection
customer
sports
backbone
Safety
condemning
Venezuela
labeled
Sermon
escape
motivates
adopted
unfailing
Trials
oxygen
brightly
dated
fueled
preteens
wage
Rwanda
Congo
hoped
bound
drafted
workmates
distinctly
Alaotra
pains
diagnosed
Mangoro
marks
preteen
elaborate
Loving
1,500
shedding
profess
unkind
optional
acceptably
Anyone
Street
unions
disobey
Amsterdam
aloud
Thailand
Primarily
Writings
transplanted
1910
unbelievers
yearn
faithless
recreation
habit
prestige
transportation
administer
interpret
lawyers
Junia
agent
doves
listens
smiling
Summarize
messenger
inappropriate
900
relocated
Government
Deliverance
images
treasured
Evidence
ravens
Christine
Massachusetts
74
visitor
desirable
1918
1858
vindicated
Kazakhstan
Almaty
Alma
endures
coupled
terror
Thereafter
abusively
ranks
1,100,000
average
seduce
Ones
citizen
rainy
climate
Felix
celebrations
weddings
darkness
trademark
customary
oneness
Pontius
religions
passerby
lonely
traces
Secret
inflicted
Jessie
Malayalam
coconuts
Freetown
justify
country’s
undeniable
Set
www.jw.org
truck
drivers
transformation
hesitant
Injustice
flocks
formations
3,500
considerate
thoughtful
reactions
Berdibaev
Beishenbai
Abiram
Ashtoreth
71
Chemosh
wherein
Its
Ancient
firstborn’s
JESUS
contemporaries
isn’t
targets
beautifully
counted
booklets
basically
Adolescents
located
admired
donate
anonymously
Massah
allowing
refining
Kadesh
nearest
Thompson
downcast
builds
examined
20,000
enticed
southeast
148
unknown
contemptible
critics
zealously
parade
Learn
researcher
Nebraska
reviewing
finest
constructing
w17.10
Ramah
Rentis
Rantis
Must
protective
Ahithophel
sensed
authorized
Persuasion
planet
respectfully
console
Christian’s
theologian
Making
Media
3,000
warmth
Leigh
professing
president
forced
responsive
equate
trains
suicide
sank
entertained
Teenagers
reserved
pursuit
kg
unsearchable
onto
seedlike
Twentieth
assemble
counseled
identity
2,500
interpreted
passively
Century
ONE
comforters
repulsive
Irkutsk
1983
Chüy
1982
exhaustive
refugees
mood
believes
We’ll
exclaimed
irritated
amazed
loom
devout
escaped
wherever
afflicted
Gothic
shaken
Syriac
plausible
frustrating
echo
enables
docks
floodgates
testify
desperate
Milton
heartless
supplicate
Henschel
Indus
charges
Sukkur
spared
93
earnestly
boxing
trace
intimate
steadily
prevails
ADAM
singers
thousand
Gloves
guards
enrolled
Provider
inexperience
displeasing
romantic
Suiter
Grant
Hardaker’s
needlessly
abundance
plastic
controlling
bowl
enjoys
Centuries
saves
obscene
converse
lesbian
aptly
shock
pearls
tea
perish
Frankly
clinic
governmental
1978
Carlos
focusing
600
Upper
Until
finishing
disowned
prospective
increases
advisers
Almighty
Again
Include
Depending
below
Behind
conveniently
translators
Volumes
treats
unemployment
1932
paper
Regained
injury
Theological
inclination
Talmud
rigid
denounced
Bicol
rough
Lost
farm
revealing
equal
Frederick
Games
Austin
realizing
aboard
persevere
sentiment
accountability
attached
Catholics
1936
tireless
Agent
lender
Chief
progressing
1998
purposes
horses
difficulty
Fulham
1915
smell
render
superhuman
discerned
disadvantaged
Jonah
Exercise
adversity
seeks
Allow
copyrighted
Significantly
audience’s
Adelaide
equipment
Donations
load
tasks
alienated
Challenges
repeated
Columbia
1973
Arkansas
satanic
waves
enthusiasm
essence
Jennifer
oneself
cow
exact
crowning
Sakhalin
climb
pancreas
Voluntary
liver
murderers
Bogdan
Angarsk
asher
cloud
sport
impresses
responses
origin
Heights
Seeing
Sunday
careless
Very
Get
adhering
gratefully
w18.02
schoolteachers
Plans
mix
consistently
Friendship
animal
10,000,000
reported
pangs
WAS
prejudiced
Taking
Michael
factor
hated
void
extenuating
nationality
Caledonia
psalms
indifferent
dancing
transgressions
declined
wife’s
wrongdoer
Health
Guadeloupe
Gabriel
CONTROL
Working
Czech
Zech
domestic
lights
accomplishes
popular
grants
misconduct
boundaries
chooses
celebrate
Design
Roger
proceed
regrets
Singh
teeth
Switzerland
digital
Greetings
decides
antidote
unconquerable
Steffen
expended
pleasurable
Commend
di·aʹbo·los
prevailed
onward
Quality
Precious
Construction
emergency
Rejoice
Endures
Polo
suppose
Nineveh
wayward
Sweden
selected
Forever
photos
harshly
beforehand
graduating
fix
Ninevites
improved
prayerful
farmer
collection
decreased
absolutely
View
extremity
1981
negatively
invaded
confuse
apartment
flight
outspoken
traced
Grounds
Getting
Luxembourg
Feeling
winds
treacherous
Alabama
England’s
weekend
outsiders
deeper
dozen
misdirected
seizure
SELF
Jan
believer
trumpet
Gulsayra
admonish
elsewhere
Assyria
animalistic
National
genealogies
Earl
displaying
blame
anticipated
Rise
choirs
Antioch
2,800
Pisidia
logical
robbers
reasonably
instructors
week’s
journeying
imiẹfan
ulẹ
rhooro
resign
arudinnodẹ
bii
goodwill
Bulgaria
ARHIE
orhiema
ugamwe
sanctuary
retired
undisclosed
chastisement
Fian
6b
dakaan
supplicated
FIL
ọyẹnmwe
meat
renders
starvation
stumbles
I’ll
uhunmmwu
ayayero
ibowa
Ammonites
aggressively
iyowa
Hallelujah
shaped
pathway
talọẹ
dọe
kindnesses
Tobaija
evbibiẹmọ
Nokhuọ
segregation
Nearly
stagnate
Idu
Winter
Olodigba
grasps
stew
Emaọs
Urri
Arhunmwu
technique
ẹtẹn
Ẹdẹrriọ
Ahọ
ukpogieha
aighẹru
Egbọre
jesting
frustrate
pondering
EVER
Ona
dọlọyi
Willful
oregbe
catering
esiga
banished
victim’s
tenderhearted
guanrẹn
disparaging
chat
ranran
inequality
Ẹrhia
ugiasiẹn
152
Tsunami
Yerẹro
igiodẹ
Hezikaia
sounded
Moving
ẹyaẹn
ukpogisẹn
Elkana
Fe
egg’s
implanting
ọrue
sentences
setin
Twice
baẹn
Ovbiogue
fairy
champions
rriara
orueghẹ
tossed
meekness
ẸKS
relying
climates
heels
Ọtẹnmwẹ
Ovbuẹ
agharhẹmiẹn
Guides
ogege
rriọkpagbe
hung
kọlose
swoop
sweep
analysis
indecent
daiabitis
Ikueta
plotting
Orhiọnkpa
gbotọ
zọọ
unforgiving
arhẹrhẹ
borrower
dọmwadọghẹe
Odọ
cult
tricked
ova
uhe
mistakenly
Resisting
worsening
commencing
udazi
ẹgbo
edition
placards
fashion
gadgets
logho
Saul’s
ọrhiọn
Jonathan
consultation
Finding
fearlessness
departure
gradual
Simeon
staunch
fittingly
lọọ
Ohuan
Oteghe
ibiba
igan
irẹnmwẹ
nọgbae
lighi
AN
INTERNATIONAL
BROTHERHOOD
edunna
Olẹtin
PEOPLE
klass
prided
reprisal
ọkpanike
khuo
ruẹe
medium
116
115
sized
Hidden
concluding
diẹn
ẹtu
equips
war’s
THESS
characterized
rode
Huanrẹn
lowered
okoro
prophetess
gbiri
novice
arọọ
ẸMWẸ
UGBẸNSO
ẹrhunmwu
gbọyemwẹ
Reading
Sinagọgi
Akhiẹ
ọgbọ
veteran
placard
omurhia
plane
worthily
poring
silo
style
poetic
rẹghẹrẹ
Designer
Wanting
tickets
consumed
wider
kissing
ekorhiẹnrhiẹnmwẹ
fẹfẹfẹ
dibu
visas
ẹkhae
Death
woods
agbẹn
permitting
yama
iyuẹ
breaking
Ugan
Exist
Uhunmwuta
Golec
serriọ
Want
courtship
riding
tẹnrẹn
Commenting
NỌ
readjust
AZA
IMA
NẸDẸ
RRE
Roads
questioned
arm
housekeeping
Fo
Hosea’s
selection
ihako
whips
oteghe
placing
readable
jokes
heavier
kpigho
remainder
wins
Rhunmwunda
excusable
ARRIAISẸN
Nineteen
ẹrinmmwi
sums
okperhan
Die
Enjoyable
Kamẹl
quay
caters
yanyan
ẹgbẹdin
ayan
avanukhunmwu
Planted
tue
Steps
nukpogieha
sọnọ
labors
deteriorated
Discouraged
acceptance
ighogho
Sapphira
ikpianbọ
iflawa
shipyard
iyẹ
Literature
oliv
Jehovo
VBUWE
rọkhọe
accuse
Joẹl
Wegbe
assets
dividing
Vbọsiẹ
bouquet
ọgbọmwa
B.C
Fua
weghe
Laws
Principles
tear
Conscience
Zẹrubabẹl
Gọvina
obọkhian
Rakiẹl
Choose
rriase
declaration
Effective
Ọfunmwẹgbe
despising
Tobọ
broad
Hungarian
Archives
unquestionably
eki
Ogieva
Violent
ulema
Sodọm
irons
master’s
ogiogiẹ
Ihinrọn
orrẹ
Nadia’s
unknowingly
delays
disheartening
zọlọ
bizugbẹe
bẹtu
careers
reminding
Ekpataki
JỌSUA
Ọbuohiẹn
ọmerhan
delicacies
Fame
strict
mọbọ
Imitating
Share
underlying
convened
misled
marketplace
Otẹn
dragged
instituted
Siẹn
soyẹnmwẹ
agikpa
Ẹghẹikẹghẹ
messiah
migrations
ọkhioha
wallet
gbakiyẹyẹ
transitory
Gele
rukhọ
gossiping
endangers
separatist
yogọt
Ẹrriọ
complied
deserving
Together
repay
ogua
weẹ
climbs
78
rriọkpaegbe
serpents
meddling
vbẹre
irorinmwi
ọwẹwẹ
flour
unlock
supposed
DPA
Worship
kiere
ẹtien
restores
harbor
grudge
permanently
rrua
TE
troubling
kadi
linen
iyobo
Sooner
tilae
analyzing
stoke
ẹdẹnẹre
Alzheimer
persevering
distrustful
Gospels
managers
Silvana
idioms
cooperate
Ẹrẹna
Atamuolọyan
Members
cleverly
Iku
ahoẹmwẹmwa
Okpamẹ
ugborrirri
Edọmwadẹ
Pẹgamọm
exploit
Tiatira
tọlọ
deaden
rhunmwda
eniwu
iwannegbe
Tension
mandated
utiemwẹ
enhance
ẸFIS
Ibeleku
sọnnọẹn
zẹẹẹ
admirable
restriction
wp17.4
References
CHRON
Evbavba
defile
painstakingly
ZẸVBE
specifies
gatherings
Knọrr
KINDNESS
binding
uigiasiẹn
Ivbiọtu
Azaia
pleases
manslayers
ighe
ewọwọ
approximately
tight
osanobua
Enọk
doesn’t
oghe
sterling
outcast
aimed
inculcating
wages
shunned
Peasants
ọghian
Ugbogiorinmwi
ineffective
edagbọn
gentle
richer
Okaolotu
ukpogiehan
ukpogihirọn
forsake
rhiẹn
rhiẹnmwẹ
rueghe
west
eghọẹn
Habakọk
hinrin
guaekpa
esọsi
scorned
enthronement
autumn
Odukhunmwu
orruan
Golaiati
earliest
maneuver
banning
umọbọru
Macedonia
inject
odiọn
eyesight
premature
Stick
Damascus
Step
consequence
odakha
spelled
WHY
fraudulent
ỌBO
Eniwanrẹn
syringe
Warning
fits
overreacting
Ehaz
recurring
Izẹl
Giliad
unavoidable
ekoboko
mama
belie
entreat
dayi
godliness
IZINEGBE
lamp
etalọ
secularly
Rusell
Ọsiemwiẹnro
idolatrous
filthy
verge
orhunmuyẹn
Kpe
prisoners
unbeatable
afierhan
PET
heartened
Nehemiah’s
promptly
Concerned
Osanobuạ
ghogho
groomed
miẹnrẹn
edge
ọtiọn
arrow
tirade
piercing
organs
irangbe
quarters
game
bequest
Refuge
Evburriẹ
Patiently
figuratively
Dọmwandẹ
Favor
fed
fidọn
mingled
dọn
vile
disorder
Creator’s
ivbibiemọ
Wherever
Stivin
wick
immerse
complain
networking
misdeeds
vinnọ
emwidan
idan
maintains
Web
retorted
reed
ginnaẹn
5,500
gbekhakha
bruised
ikpẹmwẹ
pupils
Willing
annoyed
Wait
Safira
acquired
matches
paths
AND
fafaa
Motivated
healed
joint
lame
feeble
Owogho
Nebal
Sheba
ohawa
Strengthen
Ekẹn
luẹluẹe
Irunmwu
corrects
gbakhia
educates
gurọọ
orikhan
GIA
distortion
deceit
manipulation
dogmatic
bite
psychological
warfare
ọkan
unethical
battles
notable
gardener
pounds
birthday
skinny
JEMS
Sọs
ikpemehe
rinmwiaẹn
festival
ọten
excludes
silasila
orhuaẹn
Vbekpa
lag
ITOHAN
resent
won’t
Ẹhoho
MAT
sua
teenage
rail
Horẹb
gbọba
Orere
opposes
ovbiran
2003
Jeroboam
kvbe
ẹrria
Enjoying
journals
Filippai
customs
Zẹe
tugie
ikeferi
traditional
scarf
homosexuals
pleaded
coins
civil
igiogbe
lacks
orhuan
Ughaẹdẹ
Orọnmwẹ
sessions
cotton
chop
erhu
outpost
nokhua
minute
Associations
judgments
tracing
aeons
wears
ọgiọrọ
Comforted
kharha
engulf
ogiete
toys
tosses
lubricates
Igiuhunmwu
gbaa
gban
OGHỌGHỌ
dampen
rectified
14th
ukpọba
81
levied
denarius
thins
mechanism
brethren
peacemaking
appointing
ayobọsekhae
tẹtẹtẹ
simplified
isonorhọ
rọkhọrọkhọ
teamwork
JOSEPH
nikaro
OF
unit
kọmputa
undermines
foni
ARIMATHEA
okhioha
incorporates
153
Egyptian
shun
aranmwọkhọ
ọrriẹ
uwọnmwẹ
provincial
giẹrẹ
akpọkọ
ihiehie
constraint
govern
Sinagọg
bigger
varied
duẹki
convenient
enroll
presentations
120
Oni
fiaẹn
Ọsanobua
propriety
ebẹdi
gaa
rival
igiẹ
egberriotọ
famed
blink
veneer
Ihẹ
Laodisia
tọ
exceeded
zaẹn
travelers
Danmwẹ
erinmwian
Starting
usọnmwẹ
Ebunbunmwẹhẹn
renovations
unsavory
breath
rhuan
sakua
answering
gbẹdọ
nekhua
Oyaya
Nọra
incentive
Dumaguete
gbalaka
nobody
enẹirrọvbugie
Ubọmwẹ
exists
staples
hiẹn
remedy
mitigated
Agan
rhrunmwuda
University
okin
Kakabọ
ẹrhẹn
UKỌ
betrayed
settlement
accumulating
vbuwẹ
Jusu
Khọnmiotọ
agbẹnkunsotọ
forsaking
scroll’s
Boarding
doo
zozo
sinmwin
Mwamwa
boasted
mercifully
khakha
doẹki
Igoru
jewelry
arhuẹ
violators
Idẹni
ukhọmwẹ
gbagba
Abakuru
Difference
solution
orrirri
contrasting
Ahọemwọmwa
orhion
pronounced
edogbo
iyobemwihia
blatantly
ofẹn
encounters
lran
Hungary
alaghadaro
Lamẹki
ziengbe
lọkọ
Ausralia
rẹnkhẹn
Lẹvitikus
Requirement
Amuegbe
exaggerated
yọn
koẹ
groaning
wasted
ivbibiẹ
mentioning
giagia
Ninivẹ
ọsosẹ
goo
Agbeha
traitor
Less
agents
isẹ
Humans
infiltrated
Vẹn
Hab
gbẹkunsotọ
egbẹ
SKE
Ọmokhuo
affects
steadfastness
Light
20th
KEVBE
disappear
openhandedly
appreciatively
ordeal
matures
cease
ebọ
surroundings
cameras
guest
maliciously
discomfort
paradais
faultless
Kporhu
fioro
Right
towels
sounding
unpleasant
Delightful
Course
Needed
figure
plentiful
Albanian
AGBỌN
ivbioyokuo
agrees
Wan
coordinator
Soviẹt
gbọyẹmmwẹ
130
Dathan
mastered
Imamwaemwi
Korah
Commission
HER
Abaija
targeted
meekest
oghohọn
VBỌZẸE
goddess
oru
ahoọ
ema
lifetimes
Judith
Rhaan
Nokhuo
headaches
migraine
Shine
fitness
fatigue
attributed
kevba
inflames
passions
ẹlẹtrik
Ọvbiotu
overconfidence
exiles
coconut
muolọ
dọmwadọghọe
uhiọnrọnmwẹ
Bu
gbannọẹn
tract
wp17.5
rue
Quite
Ọkhọnmwẹ
arhin
Ọzedu
Voyage
Delay
Counsel
ọmokpia
ẹsin
ẹghẹe
embraced
downstairs
Ka
giuan
Ẹksodọs
hauling
trucks
daeyi
prevents
persecutors
supplying
Lelẹe
brush
juice
girl’s
Zaikiọsi
isinmwegbe
bọbọ
optimistic
Phoebe
Application
fuẹrọ
except
Kọmpini
Isu
Jona
deteriorate
unleavened
lust
majesty
messengers
Zevbe
paramount
wio
splendor
gbaroghẹ
9b
tails
wagged
IN
arm’s
Oghẹ
Noting
ọmo
diguẹ
iyọbọ
khuankhuan
soso
ekaptaki
melech
muanẹmwẹ
limp
piẹnpiẹnpiẹn
alleviate
Ebed
Baruch
dollar
ọbọbọtizọ
grandsons
Orueghe
Rechabites
Ikpọka
WORLDWIDE
Modẹkai
rejoices
MATT
hẹn
Dia
Ọguọmwaziro
Ọghuẹ
Hannọ
sustains
Ẹsta
udemwẹ
looro
contempt
tebe
Uncleanness
ekhuarho
cycle
Thyatira
stranger
resisting
egiọn
Orre
họ
Hega
zogọ
imposed
umọbọ
persist
upsets
ukpon
improvement
ivbie
idols
ọwiẹghẹ
basking
Golaiat
Ọwarọkpa
Pergamum
fervent
ẹsiso
infects
khiọ
Ẹkun
odẹkodẹ
eghẹ
Iwiina
biẹle
Iyobemwihia
ekpakpasusu
ỌGHỌ
destined
Psarras
Udu
ọkpọkua
abo
yabọe
miẹfan
Ifiẹmwẹ
danmwẹho
profitable
closes
Zaiọn
Coming
Babanna
Nọgbaisi
rhunmuda
Hu
Yagon
motives
illnesses
Lies
stomachs
headstrong
Listra
reckless
drove
ipalọ
ughanmwa
Esagiẹn
Baibọl
Noyaenmwa
ikuanzọ
ugbẹnvbe
odor
aroused
hilly
indignation
banban
yevbesọni
tetete
rẹ
MUEGBE
YE
slaved
ẹtẹbitẹ
liar
hindrances
Nazarene
bother
Wẹẹ
presumed
gbọyẹmwe
kpaodin
Earnest
buses
Fai
Ẹwaen
unreservedly
Ihẹghẹ
prophet’s
dekẹe
contrite
irhioya
Gbodan
Ekpọnmwẹ
dirty
Association
Alejandro
OBỌ
basics
sẹre
hanmwan
contemplates
screaming
Unexpectedly
Siunẹm
Osie
Albania
aunt
ẹwae
pẹpẹ
searching
Museum
Rhunnwuda
dad
slows
BAIBOL
Izọghae
Orhunmwuyẹn
Banbanna
Australian
rhiere
kẹvbẹ
ẹrẹ
ọdion
1935
asobọrrie
Leone
Downloading
Ultimately
numb
Jerusalam
emu
egberran
nekpa
Fulfilling
shouted
Sainai
nọghayayerriọ
drown
kpọnmwọn
Ọtuẹn
conclusions
Datan
edogbandogban
330
driver’s
emamwaemwi
ALL
Thousands
zọkan
keener
concentrated
ẹwerẹ
dinmwiọn
regional
wheatlike
Fu
shackles
uzẹbu
predominant
originate
isolate
Save
ifẹnmwẹ
ekhae
Kora
handsome
iheva
nogienẹ
guọrọ
tẹkpu
starting
sits
ọfọ
Jonatan
Rherhe
izọla
Inugba
fiegbua
Walter’s
extravagant
ekẹtẹkẹtẹ
ebu
TẸS
casual
ehuanegbe
policy
ỌKPA
KHIN
UHUNMWU
OTAGBỌN
Owẹ
dẹgbẹe
hinusi
emiowo
erhavbavbotọ
akharha
Ẹmwi
Customs
isanhẹn
mosemose
payments
fellowship
dishonors
ALLEN
Mọzis
Extending
friction
ESU
soften
eteburu
ibare
immigrant
indignant
frozen
prepackaged
TV
DEUT
IRAN
iyehan
Ọwarokpa
vbọghizẹkpẹ
itegbe
Ifuẹn
tengbemu
RUẸ
khianrẹn
Ọdia
contentious
Huge
Okhuae
loans
GU
udẹmwẹ
severely
adhered
154
Gebrẹl
odafẹn
marriages
Ọmokpia
mẹzaia
Kor
muna
izirọ
tragedy
law’s
Sọyẹnmwẹ
Egbuẹ
itota
ẹgbuẹ
datie
Elaihu
Kọnrinti
Noyaẹnmwa
allegation
Nọhhuanrẹn
Yevbe
sọni
yọmwẹ
Ime
gbokhuo
umanmwẹ
fraud
Ẹgiẹgiẹ
idobọ
Several
Pennsylvania
igbodan
quotation
ẹdọ
consulted
sẹnrẹn
zeki
gushing
adrrẹsi
vbuọ
Madeleine’s
ripped
punctuation
Ilekhue
Arhuanran
ẹbubẹ
destroying
ROBERT
rhuọ
Egberọkhọmwẹ
ayo
danlod
ebuka
fertile
gbamẹ
sawọn
eastern
Ifi
UMIAN
abiọmwabiẹ
ogbewerriẹ
ayayẹrọ
kae
Lẹgbinna
ekaolotu
Izrel
Jos
furre
Thessalonian
Yangbe
abọtọ
senses
youngster
Idobo
immune
6a
countryside
Cruz
esankan
Arhiọkpaegbe
Donation
prosecutor’s
uprooted
harvested
Ọvbehe
restaurant
eghute
ọhan
Providing
ẹrriọ
Kọlosse
clients
tamuolọyan
endanger
ọkpẹre
Ford
Izọese
yanrẹn
degbe
Agọr
Jakẹ
dewarorua
hoghaa
bọnmwẹ
dẹghe
rubs
ukhiọnfọ
overlooks
olodẹ
ivbiyokhuo
ẸDẸ
Ba
Doctor
biro
ọmotọ
Gbain
Oyọnyọn
Rẹrẹ
ikoroba
ayi
ẹseọhẹ
raids
Larre
oko
Alagberra
defi
Sometime
Rachel’s
demoralize
bọdin
Ugbo
enọyan
nekhuẹrhẹ
intimidate
surrendering
uwinhinmwẹ
klasi
contaminated
Ẹkhabe
posted
a·ga’pe
fẹẹre
iyemwẹ
otiẹn
ogiohẹn
runagban
unrolled
uruhuẹvbo
Heeding
rabbi
ukhuerhe
etebul
Natan
eghe
Ẹrinmwi
overtime
evenings
Agọ
manọẹn
processes
Inquire
siko
Barọk
Ẹbẹdmẹlẹk
Ezekiel’s
Rekab
firaa
ihoi
Gae
gbiruẹn
wia
Fruitful
Wanwan
altered
Yaro
didaghohi
expedition
institutes
Ayahọmwaehọ
Ruler
explore
ikuaengbe
muẹtinyan
nursing
ọpia
odo
wrongdoer’s
hoẹmwe
swore
Fibi
vassal
orukho
reenter
họen
battled
Ukpọmọ
interchange
yunmwu
Ọgbugbo
Troas
EGBE
nikhuọ
Amalẹk
DIA
ovbioguẹ
presiding
requesting
rebuked
evẹn
Ohọhọ
partaking
ikian
serpent’s
EACH
Cọr
Zẹdekia
Stripping
Adeghe
settles
ọwọrhọwọrhọ
Robbers
etẹlifoni
kọmpini
bruise
khuikhui
ọbevbaru
ẸZIK
recognizes
Senakẹrib
Horeb
reproaching
agbaghuzalẹ
Gabriẹl
passes
Wu
Nẹ
Erhuanegbe
visa
channels
1912
enenẹ
Zaikiọs
ibudẹ
unsure
foẹ
erhọkpa
confrontations
zẹko
Tọm
Odiọn
fọnbọ
igbinnguo
waning
Eghan
kọnkọn
enikẹre
warranted
EHỌNRRE
igie
Tom
hiokhuan
Itie
remarry
ọlarre
Merchants
ifiẹzo
ukpukpo
kọlọe
Sold
Animals
Temple
vuẹ
apostate
flirting
RAINBOW
restraints
Lystra
kẹghi
persuasive
delude
egba
stresses
shudder
wipe
Underlying
enumerate
Bẹghe
odọni
ọkhaẹn
Communist
reachable
fond
Eviẹn
breaks
Azaraia
vase
Misiaẹl
Ọsie
Ikpẹdẹ
ọgban
shortage
Hananaia
warms
rhulẹ
inconvenient
imotọ
employees
ki
Imuanẹmwẹ
Respond
rrẹkọdi
Commit
pledge
habitually
awed
Insulting
hẹnnẹdẹn
Oya
Dogs
Little
Illustration
dictate
enaye
Oyi
Ọduẹki
Khiẹn
sumẹ
Strive
Urriẹdẹ
homesick
umẹkpo
igban
recounting
vigor
reorganized
stenographer
Mẹziaia
dinmwiamwẹ
Ọwarọkpani
ibọlu
Erhọkpa
Oze
riveting
petitions
isiwnna
250,000
Ọmakin
productivity
Sọdom
Talinn
Ẹbọ
orriete
enọwarẹn
era
distracts
vinọ
suppress
yanghan
naive
kpasi
Ọkaokuo
deny
Lessons
Ku
Ipapa
Kugbe
Priska
Akuila
dọyọ
Antitypes
Ọdafẹn
vbia
khue
vbọlọ
omugui
uyunmwu
vbọsiẹ
ihin
fatherly
bungbe
Zakiọsi
ebamiro
iweha
Tian
agbọmwa
ogberhu
ẸDAGBỌN
exaggeration
saddened
relieved
egiaye
convinces
ruined
professed
ruin
unfaithfully
buildings
burn
Osanoba
overgrown
amass
IVBIOTU
assisted
festivities
dove
Eke
descending
OKHA
accuser
participating
arria
fiabọ
egebe
1529
bọe
olẹga
afan
prisoner
gablọ
wika
ARRIỌBA
ukhuegbe
Servants
gada
obiyọmwa
oberhọmwa
ẹgbe
cell
ọmwata
inconsiderate
doubting
calculated
currently
vbẹ
banbanna
radiates
ẹrhunrhun
Suddenly
communicative
Ọrhuanegbe
survived
schoolbag
Vbuwẹ
wẹe
edọmwade
1972
hosted
Asher
populate
olẹtin
impels
Hereafter
ideghedeghe
orhumwunyẹn
Lazarọsi
meditates
rereads
kills
SET
Sẹt
Akharha
Parkinson
Uhae
pronoun
enslave
substituting
irhiẹdẹ
yọghọ
workmate
Uvun
immature
nọbun
tititi
inference
Bringing
propagandist
Beg
sparked
registration
khẹkhẹ
ỌGBẸN
bothering
levbasevba
extraordinary
mẹsini
ofunmwegbe
criticism
tremendously
Itanẹti
resident
kuan
hired
atatabọ
Nazarẹti
luxuries
Daa
Ẹgiọn
igipt
captors
jeered
Zion
Ẹsọhẹ
helmets
locks
submitting
Armagh
Newry
emphatically
advocated
Gather
Ufomwẹ
choke
Faith
defraud
relating
devious
oguomizan
Etan
ikpanro
turbulent
kin
uwanmwẹ
Ukhukhu
Hate
Nianian
dianmwiamẹ
executioners
stings
Either
Introduce
Olighi
yangbuẹ
unanticipated
positions
stoking
ẸVBO
Mẹtusẹla
drawings
ọto
paintings
representations
Ebẹl
proven
nẹdẹso
archaeological
agbadi
newlyweds
rhiara
Damaskọs
ọrọnmwẹ
ekad
ekesugie
ukpi
Ọnii
Hiọnrọn
ohioro
minimizes
uan
contents
contraceptive
1,370
Tọn
efaa
shipped
Epaenetus
ẹwạen
updates
1890
Tryphaena
Tryphosa
dinmwianmwẹ
emobọ
implantations
commercialism
PEACE
JOY
Hin
UFUMWẸ
iwo
rift
Tẹ
embarked
Ẹsin
affirmed
Protestant
Ghe
Ọkaolotu
edifying
luggage
Okun
umọdia
arre
rrẹkọd
sankaẹn
elder’s
khiẹkhiẹ
wastefulness
stewardship
okuku
dọmwadọghẹ
rocks
hosting
Loved
Terminally
igbiragia
Benefits
Ill
ihunhun
Igbinna
immense
wonders
Ilẹkẹtin
emasini
agele
strained
Possibly
intersection
diae
provoking
iyan
constables
lughọlughọ
agan
Bitinia
Hana
gbọbokhian
1,400
Korea
zẹyọ
kaka
niania
ghẹghẹghẹ
Joas
kii
intending
ikobọ
dinariọs
JOSẸF
OVBI
obtaining
ARIMATIA
Pọntiọs
apparent
dozens
commissioner’s
misunderstanding
respectable
omọ
arriavbehe
tranquil
nukpogieva
Yola
tables
Igbava
Hausa
plaza
Agbekunsotọ
Ọsihuan
Kapadosia
Evbakọnrẹn
overturned
buying
refine
KOYỌ
ACCORDING
fọ
changers
Ivbiogue
benches
Eko
outstandingly
unaware
index
ọghọmwa
substantiate
Circumstances
intentional
dẹẹ
emo
comprehension
adapting
Pọntus
ọmunu
otẹn
Iyobemwahia
Lidia
Leader’s
excessive
Draw
preference
BEING
okpẹhoho
tọnnọ
firstfruits
Uko
Rri
vberrriọ
igbedia
DIUT
Itengbemu
enticing
Imuaẹmwẹ
oghodan
Josua
Examples
flat
Tama
institution
tombs
exaltation
enogieva
enọkpa
models
prioritize
Eto
cellular
katọn
nọkhuo
graduates
ghẹghẹ
steer
Silo
iyokuo
MAKES
overdrink
tọnnọẹn
tempt
applaud
earnings
igẹdu
Buohiẹn
Etisa
rọn
Afianma
Relationships
outburst
Siẹkẹm
Osanbua
Lev
periods
stewards
estimates
Isaranmwẹ
richest
lowliest
quo
vbẹrre
competitive
statistics
isimwinegbe
Amnọn
idinmwiamwẹ
EWANNIẸN
patriotism
Timọti
confused
ẹwẹe
occurrence
validity
Griki
endlessly
GHI
Apostates
horizontal
evbo
overlapping
enakpolugho
consisted
tagha
sentimentality
whereby
seizing
loan
rhiakhi
attained
crush
akuọkan
vividly
unforeseen
ujoko
okhirhikhirhi
amwebọ
bloodguilty
Rekiẹl
Deghe
competition
igiodu
MWẸ
biọ
12.4
heirs
unified
Faced
diagbọnya
Asefẹn
calamities
generations
Universal
Letter
Amẹ
Ẹlasia
Ọdẹ
Smallest
estimated
Ototọ
compete
Vbọrhirhighayehe
Hebrew’s
Banban
gbẹrorua
minọ
maximize
aghae
gbalọe
circuits
districts
hiẹre
actively
ẹdọkpai
khẹdọkpa
instructs
townships
sọn
Shiloh
sacredness
adolescence
worshipful
sheeplike
invigorate
peril
Judg
adult
participates
vacations
collapses
Deed
30th
Gujarati
western
Writing
heated
Enemy
mirror
Healthy
propagandists
makeover
unfairly
truthfully
Preaching
Noemi
hadn’t
adoption
sadly
Contrasting
unjustly
neglected
Communists
corrupting
Almost
prolonged
tolerated
native
Four
unemployed
misconstrue
upstairs
Enoch’s
rainstorm
legitimate
hairdos
haircuts
worsened
Support
occupy
split
unfaithfulness
LIVE
troops
garrison
attachment
occurring
confirms
Kind
outsider
excusing
ordering
dawns
Desire
absent
ARE
Acting
exhorts
cords
Lydia
bye
insist
fugitive’s
beating
Stop
commander
connect
resorted
reconstruct
merchandise
atomic
bombs
awful
Missionaries
quoting
STORY
LIFE
Sun
nears
shrink
wiping
strange
mailbox
breakup
deter
exploding
knowingly
fleeing
acre
Hananiah
Uzziah
grandparents
inadvertently
observances
Cherish
Passover
forgets
Science
liberty
secluded
Aside
equality
TODAY
manna
succeeding
Riches
Modesty
estimate
soaring
dependent
Assist
Anyway
storks
Relates
consoling
escalates
FLYING
fresh
prediction
conquered
café
communicate
coffee
emphatic
utterly
devoting
provinces
enterprises
FIRST
supremacist
tattooed
men’s
existed
Tattenai
Bit
mountainous
develops
pastured
murderous
Arrangements
camps
Tabitha
powered
CENTURY
siege
consulting
Mishael
sprang
strokes
Robert’s
submissive
tithe
Immoral
slanderers
Ten
tomorrow
proves
escort
woke
blunder
recipient’s
spot
typed
stencils
chasing
breeds
unevenly
submitted
Becoming
handshake
Lam
guest’s
checking
breakdown
heretic
refuses
outdo
concludes
persistent
disseminate
Region
ascertaining
prevalence
seeds
gladness
Tax
purchase
thanking
unlocked
Edenic
retaliating
prepares
trusting
heartbroken
chore
running
auction
Disputes
mislead
Aaron’s
errand
mourning
captured
coat
harmonized
Eighteen
lazy
expenditure
profit
trend
downward
quotes
anointing
subscribers
Yourself
clarify
nourishment
Southeast
combating
fostering
dissensions
unbreakable
indulgent
undershepherds
ploys
Affect
doctor’s
corrective
berate
Godly
classmate
chauffeur
bounds
extremists
offenses
Babylon’s
degrees
entails
Few
chased
disembarked
lower
overriding
toddler
eyewitness
worrying
Copper
criticized
Visions
dagger
Alzheimer’s
clips
restraining
belts
coastal
bans
misrepresent
Phoenician
Racism
curious
lured
Zarephath
Sisters
bomb
explode
slightest
attendances
upward
drained
astrologers
mockery
avert
committees
Autumn
advise
annoyance
deceitful
Rough
morally
Road
simpler
sects
calmly
LIKE
carnal
envoy
handguns
Rushing
Republics
Close
Socialist
Thirty
excuses
firearms
Heading
ascending
disowns
rifles
Mutual
Naturally
agitated
spy
Azariah
shears
objectives
Deadliest
Tsunamis
Recorded
Mutsuo’s
whistled
psalmist’s
conjunction
interesting
Expressions
tripled
quizzing
jail
senseless
tamed
provoke
utterance
heading
opposing
awkward
mission
afternoon
snares
Mercifully
sidestep
Sound
Joyful
Side
Emmaus
replicate
suffice
anonymous
Shechem
Basically
Parkinson’s
Lawgiver
block
practically
beasts
nationalists
loose
versions
Hello
bald
Sister
regarded
idolaters
knack
obnoxious
faulty
object
concubines
risers
adulteresses
pictures
sinless
voices
bandy
clash
hurried
unconditionally
pale
Bereaved
neglecting
refute
European
Send
Obediently
abandoning
toilet
nosed
eyebrows
tribal
reassignments
Dedication
legged
Highlighting
Eye
Ages
reenactment
erupt
injurious
betrayers
blasphemers
liberal
politely
Teachers
Bulgarian
astounded
flogged
diverse
culturally
widening
Halfway
branded
ascertain
refreshes
drunkard
Amnon
terminate
superiors
compose
regards
hilarious
proverbial
drinks
refreshed
reigns
Carrying
watchtowers
Jakeh
disposal
Jerusalem’s
sorely
humbled
contacted
stooped
Seth’s
olive
Nobody
compelling
reservations
sureness
dry
Belong
operates
stuck
energized
conceived
film
impelled
allegations
staring
contrasts
cheese
foods
prompts
a.m
underlies
evangelizer
succumbing
wronged
solidarity
calmness
equanimity
Respect
dependability
lean
kids
barrel
competent
belittling
molding
chance
spotlight
spines
employers
superabundantly
conceive
thievery
conceal
redirected
healer
Quarrie
transforms
Bethlehem
wool
soft
afflict
quarter
chiefs
mouths
rebuild
unspoken
Angels
detests
pleasantly
demonstration
thrill
Ishmael
thirsted
farming
adhere
sum
immorally
posture
overeating
Postponing
Trees
yogurt
rolls
hedgehog
protests
memorable
Against
worsen
Son’s
People’s
intentioned
Turkish
fester
quote
demonstrations
gravity
underline
Resolve
Conflicts
Promote
realities
Helping
complacency
industry
Ammonitess
publicity
revolts
revolutions
commentary
remnant
voluntarily
functioned
attuned
porch
Records
sheet
hood
homeward
verbalize
eclipse
Firm
formally
convertible
malleable
rewardingly
bothered
governed
Pioneers
recommends
gullible
addressing
prophesied
attempting
oversaw
conveying
havens
deposited
Pilate’s
unrest
clergyman
determines
situated
extensively
lending
Big
resolution
Middle
lavish
chastity
denar
pigeons
Eyes
Issue
journeys
yields
sacrificial
cunning
seduced
stimulates
frivolously
ethic
unsatisfactory
impose
ultimate
wished
Prisca
mask
Vow
villagers
weakness
Representatives
Prompted
Divisions
spell
surpassing
implied
spiritistic
expert
straightening
settings
abnormal
Aquila
orchestral
sustenance
inconsistent
changing
educated
loses
creates
vacuum
polluted
ranges
disloyal
pollutes
Methuselah
cautions
blown
pollute
defiled
doubtful
pocket
risked
derision
Completing
presumably
judgmental
rapidly
tactful
vessel
complaining
grade
astrology
intervene
fortune
keys
bride
Participants
largely
prevention
eclipsed
reviewed
cater
shot
Move
Raised
stage
crying
fated
Pharaoh
airplanes
bedridden
pertinent
attaining
Addressing
liners
persecute
Circuit
Looming
deepest
strategy
unbounded
gentleman
risking
cultivated
suits
bolster
perspiring
vines
shorter
holidays
edged
inches
THOSE
rainbow
appendixes
purity
Loves
burdensome
impatience
Persistent
STUDIES
unsteady
pre
announces
courtroom
awaited
coworkers
usual
legionnaires
Singing
Sexual
Improve
implying
rot
entertain
novel
sentimental
whim
overseas
structure
Meditating
enrollment
Question
Box
Soothing
Meetings
elite
Pleasant
stating
seized
stationed
beatings
bold
stocks
confessing
insightfully
inauguration
Forward
plants
renovated
chances
charm
crop
luck
supplications
fasting
inhibits
Jehoash
Music
bustling
ritual
registered
electric
meaningless
shyness
worried
talked
possesses
thin
manipulate
proclaimers
hobby
searches
transgression
port
mates
prescribed
forum
menstruation
guns
thunder
wealthiest
smoke
horn
Baptized
frequently
biased
alternative
exclaim
instructing
Unity
midnight
steward’s
dismissal
Galatian
slaving
acclaim
creep
proclamation
evolution
observers
Six
attest
adequate
asleep
tirelessly
GOD
grades
unnatural
spirits
champion
interrupting
defeated
retained
perilous
stature
detailed
detracted
talker
likelihood
battered
ironic
Guard
invites
cybercrime
evenly
Resister
tiny
nod
Amen
jovial
penalty
reproves
corresponds
division
fullness
boast
borne
irrespective
alarming
TODAY’S
terrorism
clamoring
crimes
fanatics
Mental
unbalanced
cavalry
truthful
Guilt
unfaithful
sample
Apostate
splendid
sundown
severity
Mordecai
scare
submission
Esther
frighten
attempts
Potiphar
taskmaster
coping
arrogant
multiply
matchless
indescribable
driven
depths
unbecoming
agency
hypocrites
Last
flare
SERVE
envy
bestowed
opinionated
squarely
trapped
clasp
blatant
filling
tastes
soundly
unselfishly
traditions
guarding
millennium
proselytes
Deprived
rabbinic
Lollards
costly
sounds
giver
Loyal
sights
intriguing
Gratefully
Undoubtedly
giant
supports
apology
tank
guided
insulting
denying
erased
POPULAR
preface
exposing
lyricist
decreasing
disliked
Mean
exhorting
believable
tainted
mercies
simplistic
winter
vocal
preposterously
illiterate
understandably
choked
luxuriant
attacked
renditions
meditated
loopholes
rhythms
melodies
undertook
copied
Council
Ethan
nuns
barking
baring
receptionist
subscriptions
vindicate
mockingly
irrational
Isolate
granddaughter
intolerance
hysteria
contentment
understatement
Delivering
interpreter
racist
genocide
Danger
imply
archaic
stranded
tenets
surrendered
collecting
hellfire
Diligent
wrongness
cattle
livestock
heaped
cave
tithes
opponents
grieved
Prayerful
Mom
stoop
overlooked
surrounding
throat
uncivilized
Carmel
Scythians
gnaw
counteract
Along
achieving
constitutes
youthful
Flee
rabbis
ARCHIVES
strengths
coalition
Somewhat
tormented
OATHS
Cain’s
introducing
preservation
Families
forgives
Fill
upcoming
exclude
savings
compatible
preapproved
doer
delivery
strain
hails
laborer
unskilled
automatic
prizefighter
buckles
hooks
straps
entirely
Married
removes
Remembering
arrows
cleansed
museum
rotational
gallery
features
jeopardize
artifacts
plagued
grips
imitator
brutal
Wicked
limelight
mountainlike
plot
Sanhedrin’s
alienation
flogging
eggs
horror
preoccupied
phones
melted
endeavored
Confident
swing
crawl
resuming
Praised
cord
bumpy
handler
microphone
Sylviana’s
fertilizing
interfered
poorly
implored
rebuilt
logic
deceptive
emergencies
scope
mentor
Reality
Fantasy
specialists
overpowers
wiser
insolent
persecutor
Formerly
theirs
overpowered
widened
schedules
groundwork
securing
Stealing
manifesting
kingdoms
whomever
copyright
tightfisted
EZEK
applauded
stressing
bolstered
replies
defective
predict
resume
Lift
navigating
picks
grudges
Simple
flirts
preferred
displease
production
simplifications
ladder
Proving
corporate
proximity
kindled
Takes
Older
indirectly
Savior
hopeless
reconciled
terrorist
torso
Rest
accessible
management
displeased
Material
radioed
pardoning
Nowhere
straightforward
sponsored
aging
scar
mate’s
forefinger
bounties
dominion
taunts
Maybe
tension
misunderstandings
overshadows
unfathomable
instigated
Senseless
adapted
apocryphal
Own
declining
Sorts
Wrong
advancing
Prejudice
depended
sand
weights
chronology
geography
vacation
mainly
grandparent
escalate
tens
Slowly
ransom’s
Furious
hinders
Pride
scheming
hurtful
angrily
attacker
resolving
symbolizes
doorbell
rang
flung
steady
strife
vary
Directing
Grand
Zerubbabel
homemade
bunk
liberating
creed
reporters
menial
seasonal
nipper
sycamore
figs
phone
PROV
city’s
exchanged
Governor
perspectives
Stupid
earning
momentum
THOUSANDS
cautioned
peacemakers
echoed
locally
annoying
molds
halt
leanings
loudly
hindsight
detrimental
welcoming
Milan’s
wither
foliage
insidious
partitioned
transformed
odorless
specials
infant
delivering
stirring
lectures
donating
Walking
festivals
seeps
falsehoods
famine
gas
accommodating
poisonous
sandwiches
streams
receptionist’s
lawless
commitments
unprecedented
printery
outward
appearances
harms
Notably
multiple
sack
contamination
mornings
discord
soiled
mishok
swap
unclear
budget
potatoes
progresses
unsettled
Encourage
obsess
desk
underpin
releasing
bullied
toxic
spermicide
assisting
Mistakes
selecting
execute
w17.07
sparking
Proper
pruning
fronts
cooperation
rectangular
stab
thickens
disassociates
antidotes
excels
mountaintop
productions
farmworker’s
legionnaire
mucus
Clothe
shield
you’ll
cervix
boldness
32nd
shard
distances
preserves
energizes
aiming
bulb
electricity
token
Fifteen
realm
YOUNG
pottery
shape
irritating
disturb
charged
heart’s
spokesperson
clipping
stabilize
listener
scattering
overall
Ponder
nieces
prosper
Danish
checked
flagrant
relinquished
stupidity
frost
attentive
audiences
rarely
mechanisms
13th
plainly
resented
dishonored
composing
hurling
hailstones
creating
Continuing
barrier
uncover
awaits
hiding
penetrate
vagina
overwhelm
altars
Accurate
Cyprus
wary
Additional
tribunal
racism
recycled
lawful
permissible
masturbation
stimulating
Better
manly
bright
farmworkers
Ida’s
compiling
Scientists
undoubtedly
unborn
therapy
participation
stones
escaping
operated
fade
avenge
talented
authorizes
Confess
disrespecting
unacceptable
tantamount
fanfare
wrongs
possessed
programmed
BECAUSE
injuries
inanimate
assault
disregarded
unmerciful
solved
drank
Righteousness
Undeserved
foolishly
liberally
disqualify
childish
insult
Caesar
Experienced
outgrown
unfortunate
Ways
Caesar’s
scholarship
devilish
chunk
downsized
suitcases
imaginary
gearshift
hating
Personal
dawn
Passing
debates
dusk
Misunderstandings
disdain
Judean
purely
overseeing
reaping
Provides
misplaced
creative
expel
realistic
uncluttered
entitle
formality
adored
cabin
purchasing
Mr
deviated
enticement
opposer
cement
Esau’s
bonus
Leviticus
injunctions
biblical
petitioner
presupposes
modified
traveler
abounds
smallest
dock
Thereupon
meticulously
obscured
unceasing
shiny
reprimand
pulling
summary
sneered
Five
Sovereignty
Uphold
seismic
alluring
target
imminent
Admittedly
wave
Hypocritical
grandson
Amid
troublemakers
Front
studious
symbolize
induced
unattainable
durable
persecuting
expend
inquiry
testifying
investigation
officiating
nowhere
Appreciation
overcrowded
clung
precariously
handrail
Rutherford’s
waver
contention
Hear
vented
Laodicea
milestone
instructor
immersed
Aboriginal
attire
neat
souled
Logically
frightened
rider
mint
camper
Widen
deplorable
tents
carries
speaker’s
guesswork
desiring
stations
intrepid
inadequacy
anniversaries
19th
sustaining
Galileans
Beginning
siding
shines
sift
dill
communities
tips
Suggestions
standstill
w18.04
Sixteen
metropolitan
occult
ensnared
Sennacherib’s
wp17.3
incensed
sympathetic
nighttime
Complete
Armor
Suit
unwisely
warriors
barred
volunteered
acute
someday
exploited
customers
charging
exorbitant
Protestants
tragic
horrified
uplift
enthroned
crucial
seller
secondhand
cumin
neighborly
survivor
torpedoed
coast
blurred
Inherited
alike
directs
prophesying
Morally
recipients
Visits
photographs
influx
Tears
cohosts
allay
householder’s
Speak
Whenever
Clever
advertisers
we’ll
edict
grass
green
synagogues
marketplaces
robes
Beware
override
efficiently
revolved
Impressed
Latvian
descend
predicament
banquet
alleys
dirtiest
yesterday
dries
Absolutely
descent
forerunner
Abundant
boxes
rightfully
fanatic
reinforces
backed
tangible
Harvest
scolded
timeless
ISA
gotten
withers
peasant
blossom
Mine
revising
devices
hearted
childbearing
upgrade
transfer
investing
offensive
covering
debtor’s
distrust
Curious
contagious
MANY
ỌFUNMWEGBE
alcoholics
glared
outing
Inviting
Sacrifice
Bonds
troublesome
stripping
SUPPOSE
closeness
endowed
HEB
Branch
limiting
decisively
pornographic
parades
recycling
communicating
Remembered
frankly
mildly
receives
Burying
gesture
secretarial
GOODNESS
piled
displeasure
unite
Reflect
Conventions
International
PATIENCE
stripped
motorcycle
uniform
sealing
shut
Helped
Occasionally
closest
abortions
Bob’s
orhukhọ
thriving
Pontus
soothe
upheld
Bithynia
Cappadocia
Training
minaẹn
incurred
residents
sidecar
ceremonial
adulterous
SOMETIME
KRỌ
immeasurable
shortcomings
automobile
confesses
binds
concealed
Repentance
trauma
axis
verbal
franca
lingua
intrigued
Observers
sewed
heals
sections
outrageous
fondness
currents
exhibited
manufacturing
Possible
transmitted
unwanted
Babylonians
Deaden
harmed
minimizing
blindly
cool
define
Heli’s
North
hit
drowned
SACRIFICES
captain
weakened
translate
reassuring
mocking
Ahaz
Success
deceptively
Three
Adjusting
servant’s
strikingly
faded
epileptic
perishes
phenomenon
components
affectionate
completeness
organization’s
strives
especial
enmity
boarding
heartily
unmatched
Abijah
cleaned
seating
kit
returns
Explaining
fights
pronouncement
argue
scheduled
duty
Compared
ex
mayor
attendants
Attending
unforgettable
linked
successor
Rock
Contrast
prowess
symbol
notoriety
flawed
arrogantly
Frequent
rebelling
tours
foreshadowed
satisfies
Taste
scatter
duplicate
beauty
exceedingly
Meek
haves
hesitancy
grievous
Called
retaining
donor
connived
relentless
unstoppable
DISCUSSED
hateful
Knowledge
Lene’s
fantasies
shadow
scolding
equip
fret
Princess
outlook
antiseptic
proposal
stairs
violates
Adjust
dreamed
deceivers
Industry
empower
knife
unwilling
skill
Habakkuk
climbing
disassembled
Plead
murdered
unloaded
plight
rowdies
failures
bandaged
Trust
warrants
opinion
shipping
department
HELLO
Shut
Gileadite
refresh
stealers
entangled
corrupt
lifeblood
callous
maneuvered
Eliminate
suburbs
malicious
diverted
sidetracked
sensible
laughs
oppressive
drives
fund
sales
renowned
executive
methodically
northwest
lecture
touring
MILDNESS
everlastingly
ambitions
Serve
fancy
sobers
inserted
pregnancies
brilliantly
Samuel’s
varies
bosses
morals
quarreled
85
hairs
nevertheless
spilled
atoned
numbered
auditorium
advised
manages
flicker
distinguished
motivating
consisting
athletic
reestablish
Greeting
accommodated
bearded
halfhearted
ironing
laundry
perjury
JOSHUA
Swearing
sect
vehicle
rear
tricks
disappointments
playing
desolated
speedily
concentrate
businesses
depart
Obed
undertone
fathered
Humbly
occupies
companionship
certify
valueless
mules
nationalistic
locals
consumes
bouts
quantity
multiplying
infused
casualty
draft
separately
Hats
diet
aftermath
goods
uncomfortable
integration
taxes
Subjects
Select
sticking
tinged
tapped
reservoirs
WILL
underground
exhausting
Social
veiled
empathetic
surge
Tell
conserve
Designating
SOLOMON
oversee
restrictive
prevalent
unduly
aided
abuses
allowance
disconnected
newfound
questioning
hardened
Jesse
inclines
Mankind
housing
coastline
infantry
neck
Simeon’s
Elkanah
Elkanah’s
Interpreting
childlessness
farthest
forbade
decree
signals
effectiveness
portable
ringing
chain
youngsters
packing
initiatives
Lasting
windshield
males
Selves
Feelings
violating
color
foretaste
speeding
touches
bows
discourses
sunset
consuming
tough
Forgiveness
inheriting
operate
Appearances
Ishmaelites
verified
nonetheless
colporteur
mixing
Nurturing
apiece
147th
endless
Outward
powder
Earnestly
describing
Scripture
commentator
unrestrained
cooking
mortal
directive
updated
CAN
ethnicity
pulled
notwithstanding
livelihood
assessment
Indicating
EVERYTHING
unconscious
amazingly
centering
IF
expense
calculate
humbles
craft
ministering
abused
interrogation
Forgive
onboard
navigation
engenders
instruments
Pondering
duplication
erroneous
Sense
gossip
imposes
salary
triple
shaping
solitary
bleeding
touch
spear
preaches
complementary
befell
occurrences
Zeynep
useless
bankrupt
destitute
tact
Disciple
calves
rugged
lambs
stork
pursues
oriented
Mountains
connecting
ashamed
olds
rapid
stemmed
REV
Subject
nonreligious
Selecting
shook
administration
harass
witch
implications
sedition
Conviction
rid
Agur
terrible
ethnically
underperformance
assaulted
homosexuality
wash
controllers
tied
backslapping
controls
hail
surmount
outgoing
elections
Biblical
blow
apathy
year’s
ministration
procrastination
enticements
parallel
upbraiding
indefinitely
supportive
perversion
rampant
invigorated
Previously
greets
logo
Bromwich
despondent
Neville
counsels
forgave
gently
ebb
arms
quicker
Canaan
Replaced
accompanying
Taxation
Greco
Lately
Babylonia
Prepare
manners
Onlookers
irrelevant
rebelliousness
dull
unshakable
offend
appeals
befit
sore
styles
lowest
congregation’s
strategists
superlative
fortifies
preventing
discovery
Rewarding
emptiness
Tired
safer
Gives
burned
Deprive
Prize
pillar
aviation
ignite
consenting
cowards
Congregation’s
Publisher
stalwart
befriended
exhumed
Military
Violence
Discerning
entry
clearer
sale
bombed
device
guardian
defenses
Test
beside
Elderly
Record
lasted
crouching
surmised
introduces
favourable
worksheets
Levite
Nehemiah
Bearing
unnecessarily
TIMES
shift
AT
professional
immigrant’s
technology
availability
route
republic
wandering
Hard
merit
bathed
Bethelite
rebuffed
holds
beard
intention
trimmed
Dr
flourishes
ideal
flood
Charging
accompaniment
assumed
Picture
instrumental
yielding
clarity
Living
coworker
odd
accursed
conversing
Failed
twisted
luxury
crooked
Quarreling
Rephidim
Needless
Testing
Lamb
allegiance
inflexible
credence
frivolous
donation
Overthrow
trigger
classed
DEATH
Office
Treasurer’s
Build
demeans
assuring
newspaper
Samuelson
hospitably
stores
devastating
Shipping
stadiums
Schoolmates
imparting
circumstantially
that’s
Macedonians
digestive
Accountability
Losing
irritate
reviews
pointing
begged
critically
adornment
overview
Enter
Obedience
leaned
appoint
Dishonesty
applauding
Gold
eraser
clever
individual’s
investigator
yelled
stamp
mice
cliff
hopelessly
Demand
solidly
borders
circumstantial
dynamic
emanates
circumstance
hoarding
investment
rubbed
honorably
discharged
cultural
spies
reconsideration
philosophy
extorted
Rich
Movies
Start
creek
Levi
lines
Poor
EX
foothold
layers
sandallike
overtaken
designs
surround
surprising
movement
oppressors
forge
summoned
owed
Welcome
luring
debts
crate
designation
concentrating
safeguarded
advises
singleness
doomed
barrenness
redirect
defends
diabetes
promotions
aids
staggering
befriend
fuller
replace
respiratory
inadequate
squandering
implant
Beautiful
snake
Miraculously
rabbit
network
elated
differed
fullest
expanded
regulated
adapts
pace
mock
implicit
beg
Going
inhospitable
stumbled
attends
Fellow
disputed
stubborn
melt
verbally
kicked
foresaw
hypnotized
prohibited
immortality
proverb
determining
startling
empathetically
households
phrases
mounted
extension
forest
intellectual
advertise
Observe
Aboard
concept
cherishing
testifies
creature
Natural
dwellings
wrongful
repository
file
Woman
parables
blinding
misleads
trademarks
favoritism
artwork
muster
forging
vicious
dreaming
arrange
robber
launched
expressing
Cast
forgo
achieved
taunted
portraying
dragon
dragging
uncle
grandaunt
repays
notices
spices
burying
actual
churchgoing
plead
Sundays
Accounts
brochures
links
slander
whisper
unchangeable
Grecian
conquests
caves
challenged
session
toll
properties
tended
avail
composure
Rule
wrestling
collective
envying
Matters
Curiosity
fugitives
thrusting
birds
ovulation
OBSERVERS
summon
improper
dozed
weaned
prohibitive
boss
erected
Pigeons
Whom
Due
sheer
Friends
minas
Complicated
solving
canceled
unfamiliar
appliances
arrivals
producer
guideposts
implements
jealously
PHIL
payable
Focused
balancing
redeeming
complaint
accord
locate
explanations
counter
Ọgbẹlẹzẹ
ẹn
gb@@
rh@@
iz@@
kh@@
Mo@@
Ma@@
ae
agb@@
rhi@@
aẹn
khu@@
ian
vb@@
ọgh@@
uẹ
ama@@
sures
mw@@
rity
Pro@@
ẹl
unmwu
nọ@@
ects
aff@@
ọs
igi@@
Au@@
gba@@
ọe
imu@@
ection
So@@
gran@@
visit@@
fulfil@@
lar
orhi@@
Si@@
ọnmwẹ
igb@@
ọsi@@
amu@@
rance
ẹnmwẹ
seem@@
Pa@@
evb@@
Ca@@
Bro@@
endu@@
ffered
vbi@@
accompli@@
aia
strate
ogi@@
fic@@
Go@@
ore@@
Ho@@
estions
parti@@
strength@@
rin
pti@@
ya@@
itation
gine
Hi@@
aa
expres@@
duce
annọ
Eng@@
Ru@@
hunmwu
strugg@@
khi@@
ọmwẹ
ress
shor@@
ẹsẹ@@
aran@@
rai@@
rr@@
aly@@
Ste@@
ote
ẹe
sic
hom@@
ogh@@
sacri@@
ih@@
comfor@@
Mi@@
hunmwuyẹn
Me@@
Tru@@
ral
Nọ@@
gbe@@
IU@@
ẹri@@
lities
ọkh@@
ecting
autho@@
signific@@
Com@@
easi@@
eria
opp@@
sinc@@
lov@@
oppo@@
Ir@@
ihin@@
rebel@@
proper@@
vbiyokuo
fian@@
scriptu@@
ọti@@
set@@
Wil@@
sẹ@@
tively
repent@@
VB@@
Mu@@
lation
pli@@
guọmwadia
Li@@
mit
lori@@
ther’s
Han@@
kpa@@
ivbi@@
ọgb@@
Gi@@
prev@@
w17.@@
rri@@
tful
exten@@
To@@
ughaẹn
izi@@
int
ẹr@@
ots
oku@@
Zẹ@@
Iy@@
diọn
Marth@@
rew
Ne@@
Bri@@
aro@@
soldi@@
larly
dai@@
Sa@@
orri@@
ọsu@@
impres@@
charac@@
inmwi
ọmw@@
ẹẹ
App@@
subj@@
Ẹz@@
courage@@
aban@@
asp@@
ifu@@
Ẹzi@@
sen
pes
divi@@
prosp@@
avb@@
Simi@@
wanrẹn
enọ@@
Ke@@
enga@@
bat@@
consider@@
peace@@
Gover@@
oking
orts
compas@@
rej@@
cas@@
employ@@
ocratic
gbọzin@@
Mil@@
smi@@
ership
med@@
stan
fices
commer@@
ẹrẹro
wrong@@
adju@@
Hel@@
thou@@
emwi@@
emw@@
Lazar@@
ective
ayay@@
inna
La@@
Like@@
gber@@
resol@@
mone
Russi@@
giveness
Ẹla@@
ondon
innoguo
mies
unna
ẹgiẹ
phen
theless
Ẹkp@@
discer@@
ẹrh@@
gent
espite
erri@@
earbook
ọese
tac@@
nother
mic
Zechari@@
fulness
uda
alọ
oho@@
ergy
vbi
overwhel@@
egb@@
ffering
mari@@
Wat@@
Kọ@@
Ba@@
aku@@
itness
ọzẹe
odi@@
hu
funmwegbe
Evb@@
minist@@
Ha@@
lẹ@@
urh@@
trea@@
mwi@@
angel@@
Jose@@
Phi@@
ẹnrhi@@
Kyrgy@@
aghe
kẹk@@
Iz@@
Vb@@
slation
perf@@
w1@@
gieva
itness@@
ọlọ
zọ@@
gbo@@
ecu@@
sist@@
enly
Erh@@
shipp@@
leas@@
hari@@
ort@@
ewan@@
Mer@@
learly
ẹnmwi
ẹz@@
evbe
organiz@@
mian
evbibi@@
vbuẹ
eff@@
vbokhan
Josẹ@@
itate
Ẹ
like@@
arding
inegbe
rhi
vbe@@
post@@
quic@@
greet@@
som
ọl
ome@@
bẹ@@
akh@@
inu@@
hie@@
Rh@@
stration
hi
mwi
okhu@@
inmwẹ
Os@@
webe
erhe
raham
ẹnrhiẹn
ẹmw@@
ẹvb@@
gbọ@@
ongs
ibun
inno@@
human@@
tob@@
ẹtinyan
Ti@@
kọ@@
frien@@
ọkpaegbe
kpia
sọ@@
grega@@
oru@@
yc@@
occu@@
agh@@
yan@@
akha
salm
nee@@
ọtẹ
iẹ
cient
ren
ikpa@@
ẹdẹgb@@
uẹvbo
ghts
paganda
paren@@
gbẹn@@
zọla
Mad@@
Tẹ@@
7.@@
aliz@@
ẹke
Fili@@
cused
appre@@
odan
selfi@@
Solo@@
dọmwad@@
eping
oming
ingdom
dian
Pau@@
amuyọmọ
ọl@@
mwaemwi
unmw@@
sik@@
ẹgb@@
l’s
ọka@@
genu@@
inyan
gni@@
ace@@
Tran@@
judi@@
mwa@@
gamwẹ
mianmwẹ
Gri@@
risti
raha@@
itnesses
ọndẹ
engbe
realiz@@
sition
egh@@
nuan
Jap@@
rẹl
Ay@@
Arri@@
rhiọn
yond
gnific@@
Scriptu@@
khọn@@
ducation
eps
dogbo
tivities
cious
Ugh@@
ọyaẹnmwa
sian
Igi@@
kha@@
Fi@@
emori@@
mble
khọe
roughout
vbehe
ọma@@
dọmw@@
mwian
dinmwi@@
Kr@@
simi@@
gbọy@@
anvbimu
tainly
ọya@@
giẹngiẹn
ọdu
uyẹn
hẹn@@
mility
prejudi@@
ircu@@
Rehobo@@
lẹgb@@
iru@@
spit@@
Wyc@@
mozo
sait
Ky@@
vbu@@
kpae
kly
rọọ
Timo@@
gbo
ọọ
okpo
uma@@
rheyerriọ
khae
anobua
hoẹmw@@
aziro
huan@@
omu@@
ọrhi@@
ẹlẹ
rriọ
mwehọ
tẹn
ẹnfan
họnrre
unsi
ẹm
w.@@
foto
emorial
edom
esp@@
ork
desp@@
Iv@@
shers
dividu@@
agas@@
resu@@
Rem@@
ico
grate@@
contra@@
Zec@@
Whi@@
mselves
evbisẹ
HU@@
anob@@
ogni@@
GS
ọrhirhighayehẹ
pagan@@
eci@@
Chri@@
ataki
Mex@@
họn@@
vbiy@@
miotọ
zo
alagh@@
ẹnmwa
araia
ply
kian
exu@@
akabọ
fice
Baib@@
oke@@
ẹzaia
dọl@@
vbiotu
guo
fomwẹ
evbesọni
elẹe
hunmwuta
eignty
rinti
ạ
sider
amwa
reng@@
unmwuda
ẹbitẹ
guọmwaziro
unities
papa
Egy@@
especi@@
compli@@
consequ@@
phs
psalmi@@
unmwegbe
Tur@@
Vbu@@
chto@@
viction
ẹrhẹ
ẹdẹn@@
huanegbe
zis
rhie@@
ạ@@
ẹkẹtin
contri@@
satisfac@@
gy@@
ọrhirhighay@@
ọnnọ
hunmw@@
vu@@
Vbe@@
kɑ
ɑ̀
ǹ
ndɑ
nɑ
mɑ
ɑ
wom
Ikpɛ
unto
sɛ
kulu
ngɑ
tɛ
À
fɔ
yɑ
bɔrɔ
cii
mo
kɑɑ
ci
gɑ
Yesu
Ǹ
kunɑ
hɛ
goono
Ammɑ
sɛ.
mɑnɑ
kunɑ.
cii:
wɔ
zɑngɑ
gɑɑ
bɔm
bine
Wom
zɑmɑ
sɛ:
dɔ
thou
À
mɑɑ
Mɛsiyɑ
Bɔrɔ
sendi
dɑm
yom.
gɑɑ.
beerem
ngei
gundɑ
bɑ
ŋmɔne
dɔ.
kpei
hath
ǹ
ɑmmɑ
sɛ,
kɑlɑ
zɑ
no.
tɔ
hunu
hɑli
hini
bɑɑ
no,
Cɔfɔ
bɔm.
nɑɑne
Sɑɑ
Ngɑ
bɑndɑ
gbei
gɔrɔ
dimi
sɑɑ
tɛ.
Wɑ
hɑndunyɑ
wɑlɑ
God,
fɔndɑ
yom,
Kɑ
sɑbu
ɑ@@
kunɑ,
ɑfɔ
nungu
Yuifu
bɛɛnɛ
hɛɛ
Yɑ
coobɑɑbɑize
cɛɛ
jɑmɑ
ɑ,
Biyɑ
sindɑ
lɑɑbu
saith
kɑmbɛ
hundi
nge
huro
kpɛ
Moisi
ɑ.
ize
mɑrgɑ
mɑɑsɑ
fɔndɔ
kɔ
koo
bisɑ
wɑngɑrɑ
cimi
gɑɑ,
mo,
jinɑ
ɑndi
kɔ@@
i.
Pɔlu
fuu
dulum
Hɛɛ
Bɑɑbɑ
boobo
wɑ
Hɑlɑɑlɑ
wɔne
kpetɛrɛ
ɑndi.
beeri
hɑnu
lɑɑkɑli
Piɛɛ
sɛdɑ
ɛ@@
thee
wɔ,
ciiti
zɑɑ
ɑkpɛ
u.
dɔntɔneize
God.
bɑ?
hinkɑ
ɑntɛ
mo.
tunu
di.
Beerem
tɛ,
Lord,
ŋmɑɑrɛ
cɛbɛ
nɑm
cɛ
bɑndɑ.
weibɔrɔ
dɑbɑri
hinno
Hɛ
di,
kɑɑndɑ
gɑɑhɑm
hɑntum
Sendi
tɑ
tɛrɛ
cini
bumbum
ŋmɑni
bɛɛrɛ
cɛrɛ
fɔ.
bɑɑru
cɔfɔ
himɑ
gɑndɑ
kpɑɑrɑ
ji
cast
cindi
ɑn@@
Yohɑnnɑ
domi
bei.
kɑɑ@@
dɔ,
Ifɔ
dɔntɔm
lɑsɑbu
si.
dii
cindei
Zɑ
ŋmɑɑ
jine.
Bɑɑru
d;
kɑ@@
bu.
gɑnɑ.
ɑndebi
ers,
kulu.
gɑnɑ
jinde
fɔlɔnku
ɑduwɑ
jine
nyɑ
iburɑdɑm
nɑ,
hã
nyɑize
meigu
hɑri
hungu
bɛrɛ
jɛ
u,
bɛ
tɑm
wei
behold,
hɑngɑ
gɑrɑndikɔ
ji@@
thee,
gɑɑ@@
kpɛɛnɛ
tondi
moo
Zɑngɑ
bɑɑbɑ
m.
cometh
cɛnɑ
wi.
Christ,
Yerusɑlɛm
gomini
bɑɑkɑsine
Gunɑ,
d:
kɑɑ.
ɑm@@
Cimi
lɑlɔ
Mɑɑsɑ
spake
not,
bɑ@@
e;
lɔkɑci
nɑ.
hɑmburu
brethren,
tirɑ
dubu
hɛi
fɑ@@
ndɑ.
sɑ@@
mɑɑni
Jesus,
Ǹ
y;
Kpe,
simbɑ
sintine
ɛ.
kɑm
ɛ
hɑibɔrɔ
e:
cɛ@@
ɔ
gunɑ
hɑntumɑntɛ
ŋmɑɑri
tɑ@@
cee
shalt
Hinno
kɔ.
hɑikusu
a,
e?
mɑ.
himmɑ
hinne
Thou
Sendɑ
y:
Fɑrisi
ɑlikɑwɑli
ize,
wi
gu.
ceeci
deizɑ
ɑm
bɔm,
dirɑ
fɑihã
zɑm
fee
jiiri
cin@@
jiribi
fɑhɑm
gɑme.
kpeindɑ
tunɑndi
tɑɑbi
en,
kpɛɛnɛ.
ɔ.
dɛcɛ
Abulɛmɑ
gɔrɛ
Nungu
er.
bɑɑni
bɑmbɑtɑ
Ize
sɑbɑ
jisi
mɑmɑci
Christ.
hast
Isirɑilɑ
hɔllɛ
hɑ@@
bukɔ
multitude
kɑmbɛ.
s?
sinti
jiine
lɑɑbu.
goono.
fɑ
hɛ@@
things,
grace
gɑme
cii,
kɑɑri
kɑɑni
meire
cii.
kuku
fɑɑbɑ
all,
hɑn@@
bɑrɑ
world,
ifɔ
ŋmɑɑ.
Father,
bindi
nini
him;
kuri
tion.
ɑndi,
wɛndɛ
bɑndɑ,
kube
Mee
futu
tɔn@@
wɑɑzu
dii.
tɑmtɛrɛ
gɔr@@
ihinno
ji.
t:
hɛi.
ɛrɛ.
tɑngɑri
ɛ,
bɑɑni.
Behold,
t;
ɑli@@
bɛɛrɑndi
Ngei
tɛyom
ɑndiyom
bɑ.
hɑm
ŋmɔne.
buuru
wɑnguize
cooɑndikɔ
Bɑ
thee.
yeti
Gɑlile
zɑmɑni
bɛɛrɑndiyom
wɑ@@
bɑn@@
bukɔei
ɑɑ@@
yɑ,
led,
gɑnji
dɑm.
es;
saith,
hunɑ
Afɔ
bɑrikɑ
cooɑndi
straightway
come,
cɛn@@
coo@@
Simɔ
God;
bɛɛjɛ
nooru
gɑrɑndi
feeri
ted,
th:
diyɑ
zɑɑ.
heaven,
pass,
tɔ.
mɑ,
d?
yɑ.
disciples,
ɑl@@
kɑn@@
fɑ.
hinzɑ
teji
wɑngɑrɑ.
tɛrɛ.
goo@@
zumbu
no?
sw@@
tɑɑ@@
fɛɛ
hɔngɔ
hɑlɑɑlɑntɛ
Dɑfidi
Se@@
hulonzom
ɛn@@
hɑi@@
bɛɛrɑndi.
si,
hinkɑntɛ
Pilɑtu
zuuru
written,
ɑr@@
whatsoever
law,
tɑ.
ɑlɑmu
sɛ?
tɔ@@
tɔntɔnu
kɑrigɑ
gɑ@@
kuwɑ
Jesus.
kɑɑ,
whosoever
hɑrihi
ndɑ,
her,
hɑm@@
Jerusalem,
not.
bɑri@@
cɛɛnɛ
bɛ@@
yɑɑfɑ
o,
beeni
faith,
us.
tɑɑli
deede
kɑlɑ.
tɑmmɑ
yɑɑse
kɑmbɛŋmɑɑ
fɑɑ@@
kpɑrɛ
then@@
ɑntɛ.
kɑne
sɛ@@
ed;
gospel
dɑ
kpei.
Hɑnu
buulɑ
kulu,
tɑɑci
gɑɑbi
jɛrɛ
earth,
cɛyom
Mɑriɑmɑ
jin@@
zin@@
hɛɛ.
twelve
hurɑ
boori
hɛrɛ
cinɛ
sendɑ
bei,
pɑi.
hɔ
himself,
Lord.
kɑru
thine
suuru
ɔ,
noyom
dɑ@@
another,
hinn@@
Hirodu
dead,
me;
fɛ@@
biyɑ
bu,
cendi
ɑ̀.
bɑnyɑ
bɑ,
suu@@
th;
deth
Yɑkɔfu
tilɑsi
gɑɑbɑ
Wherefore
iyɑ
hɛo
zeeri
cii@@
ɔn@@
tɛ@@
gbeiteeri
Yudɑ
t?
hɑibɑrikɑ
that,
jɛ.
cɛɑntɛ
mɛtɛ
kɑɑtɛrɛ
binebɑɑ
suuji
fɑri
lest
synagogu@@
hunu.
God:
nɑɑne.
fɑri@@
ston@@
doth
or,
ther.
Coobɑɑbɑize
tunu.
nee
prison@@
ght.
Jew@@
Spirit,
se.
bond@@
cetu
sɑrɑɑ
sai@@
hɑm.
dulumkoni
Jɑmɑ
hand,
kpɛ@@
cɛɑndiyom
dɑm@@
ng@@
Adɑmize,
Kɑ@@
bear@@
prophet@@
condem@@
zu@@
hinzɑntɛ
nyɑizei,
me?
liv@@
Mɑɑ@@
o.
sendi.
sɑ
en.
ilɑlɔ
ɑri
corrup@@
er;
ɑndebitɛrɛ
husband@@
sɑrɑ
f,
jingɑru
ri.
church@@
ght,
eth,
gɑnɑkɔ
pɑ@@
yɑ@@
hɑlɑɑlɑ
kpɑɑrɑ.
zo@@
kɔnu
sinji
fea@@
Gentiles
ciiti@@
kɑm@@
ge,
noyɑ.
temple,
bɑtu
word,
nɑɑnekpɛ
jinɑ.
k.
ment,
ɑndi@@
gɑru
ŋmɑɑ,
hund@@
heaven.
Weibɔrɔ
circumci@@
didst
bɑri
ɑli
sinn@@
Ndɑ
exhor@@
beeniyom
suubɑ
ɑri@@
hine
guuru
kɑ.
tun@@
fɔɔ.
things.
es:
te,
kɑri
teth
),
ness.
cire
you:
men.
flesh@@
dei
fɑɑbɑ.
Hɑi@@
begat
bɛɛnɛ.
eld@@
mei
guruguz@@
kɑri@@
sɔlu
uru
f.
dɔ@@
life,
ɑɑru
garment@@
tooru
bɑntɛ
n.
feeji
sav@@
again,
ent,
keth
de,
sick@@
came,
away,
Yude
ŋmɑɑr@@
kpɛ.
hunutɛrɛ
hɑlɑɑl@@
gɑnɑyom
ɔlɔ
sɑɑbu
gunɑ.
bɑyom
Mɛtɛ
gɑnjihɑm
l,
fɔnd@@
Lɔkɑci
gɑɑbikoni
hundiyo
knoweth
dɑnɑm
ndei
bisɑ.
Zɑ@@
Jews,
mɑɑ@@
Bɑɑnɑbɑ
bineibɑɑi
sɑm@@
dum@@
bɑɑ@@
zɑɑri
tteth
cɛɑndi
eth.
tɑndi
bɔrɔ@@
children,
voice,
fɔ,
sion,
thing,
fornica@@
them;
hɛɛ,
mefɔ
Hɑli
Ami.
hɑikusutɛrɛ
kɑkɔ
you;
Wɔne
world.
er:
subjec@@
ce;
̃
Gɑɑ@@
hour@@
ɑni
bei@@
hɑɑ@@
tɔnɑndi
cried
munu
Ci@@
ibɑ
tɛku
miilɑ
p,
re.
dom,
dɑmyom
dɛrɛyom
sɑɑrɛ
zɑm@@
ft@@
send@@
been@@
taketh
tu.
abide
he,
ke,
Verily
binekɑɑne
beeri.
bɑnɑ
together,
Jiribi
bine,
kɑmbu
Coobɑɑbɑ,
multitudes
ze.
Ibilisi
binebɑɑkɔ
bɑkɑrɑ
dɔbu
bi.
wom.
ɑ?
hɑikus@@
sed,
bɔm@@
nigh
tɑm.
lɑm@@
les.
cee@@
ciini
soul@@
hɑɑli
du.
dɛ@@
Filipu
man.
Sil@@
kube.
come.
days,
gɑɑrɛ
bundu
sow@@
cɛɛ.
heart,
tuubi
decei@@
kpɑɑsi
st.
gɑndɑkpɛ
flesh,
Ikpɛ.
hɑwi
kɑsu
Nɑɑne
death,
gɑn@@
not;
Binekɑɑnekpɛ
cend@@
iri@@
Hɑndunyɑ
hinkɑ.
ings,
sea,
sɑmbɑ
ɛrɛ@@
stumbl@@
Father@@
Ikpɛ,
nd
dei@@
sabbath
ing:
repro@@
sɛdɑ.
remem@@
cire.
kɔkɔrɔ
gu,
Lɑ@@
hɔ@@
Ni,
Nyɑizei,
ɑ̀,
forth,
hɑrihiɑ
bɔn@@
blasphe@@
Bine,
noyɑ
body,
hundi@@
ɑlɑ@@
le.
ci,
down,
wɑidi
abideth
perish@@
Son,
ce:
witnes@@
kunye
kɔ,
sɑrɑ.
tomb@@
truth,
hɔll@@
Gɑrɑndikɔ
all.
Bɛɛnɛ
Teacher,
Nge
idol@@
answered,
moo@@
brethr@@
receiveth
Adɑmize
gɑnɑ,
tɛrɛ@@
judgment@@
ɑndikɔ
life.
cometh,
thousand@@
Yosɛfu
And@@
feeri.
not:
ly.
Peter,
in.
guuri
loveth
lɑɑ@@
ɑmɑ@@
Mɛsiyɑ.
Bine
ɑmɑ
selv@@
sɑr@@
commandment@@
ence,
doeth
us;
hundi.
John,
ever.
wɑngu
oo
away.
ye,
Setɑm
fellow-@@
ing;
kɑsu@@
cea@@
iri
thank@@
usu
see.
zɑngu
oi@@
guruguze
soever
ceeci.
cros@@
buru
found@@
bɑnɑndi
ciiti.
zinɑ
ds,
zeeri.
bɛɛr@@
sɔmbu
dum
fɔ@@
hinɑb@@
hɑlɑci
Wi@@
bod@@
Gɑ@@
Wɔ
binesɛrɛ
Mɑ@@
deed@@
Galil@@
kuru@@
fɑɑre
exceeding
wond@@
glory,
spirit,
mirɑndi
hop@@
hunɑ.
believeth
duje
yɑɑ@@
kpeindɑɑ̀
sin,
ɑlɑɑdɑ
Sɑm@@
wom,
bɑr@@
afrai@@
tunɑndiyom
beeni.
li
sintin@@
one.
wɔ.
tɛ?
bold@@
ɑɑ
wurɑ
hɛ.
wife,
sɔngu
fuuɑ
tɛgbei
cɛbɛ@@
ikpɛ
cimi@@
fɑrisi
hɑlɑli
tion;
tɑlikɑ
Christ;
al,
Bɑɑbɑ,
gift@@
hɑmbur@@
kɑɑru
tɑ,
hɑlɑci.
tuu@@
etɛrɛ
kɔnu.
sɑsɑb@@
prophets,
speaketh
ɑnzɛrɛfu
bɑɑ.
behol@@
woo@@
ɑɑrɑ
worl@@
betra@@
tɔ,
whereof
sɔl@@
dɑɑ@@
understand@@
ziib@@
Yu@@
thee?
sendi,
Spirit.
Davi@@
lus@@
kɔr@@
giveth
Paul,
beseech
ɑɑri
Mɑni
Ali@@
sã
kɑɑn@@
Kɑlɑ
hiji
jiri@@
feet@@
countr@@
ɑrɑ
hand.
ness;
ize.
house.
Dɑ@@
hɑnd@@
ŋmɑɑ@@
ɑnɑ
Kɑisɑ
ei,
here@@
nin@@
tugu
zenji
time,
parab@@
brother,
tɔnɑndi.
bɔ@@
himmɑ.
dɔntɔm.
kɑnji
hundikoni
hã@@
kunɑ?
les;
tiyom
multitu@@
de.
Eziputu
cɑu
day.
yɑm@@
bulu
ɛrɛ
Eli
him?
speak@@
defil@@
ɑru@@
Hinnɑ
Elij@@
bor
dɛrɛ
nɑm.
bɑɑn@@
fee@@
moodumɑ
fɑn@@
ci.
bisɑ,
feet,
tɑndɑ
ɑmu
disobedi@@
abund@@
le:
siɑ
ved,
adulter@@
seth
profi@@
mɑɑsɑ.
tted
mɔ@@
hine.
nyun@@
way,
Cɛ@@
beerɑ
nɑ@@
goono,
Salute
nodi
mɔng@@
Sɑuli
love,
truth.
multitude,
zɑɑ@@
ereth
verily,
also.
weenu
lɛz@@
tubu
wɑtom
ouldest
utɛrɛ
Yerusɑlɛ@@
gɑɑŋmɑɑ
cruci@@
spa@@
dirɑ.
Simon@@
besought
fish@@
dul@@
tions,
guusu
bine@@
hɑiwɑsu
God?
bi,
bɑrikɑntɛ
us:
ciifi
prophet,
wiciri
wi,
nothing@@
ɑyom
Yea,
zee
dumbukɔ
ɑru
jine,
reth
fitilɑ
cɛmbɛrɛ
susu.
bɑɑ,
Nazar@@
ɑize
Galilee,
death.
Gentiles,
testi@@
gɑɑrɑntɛ
hɑmburu.
gol@@
forbi@@
ni,
ti.
jɑ
les,
dden
ned,
ɑɑsɑ
Macedoni@@
Koo
en;
dɛn@@
and,
counci@@
beeni,
blin@@
goonoyom
Bɔmdɑɑrum
thysel@@
Esɑyi
on.
yom@@
munɑfi@@
proclai@@
name,
Jaco@@
dead.
led.
mind,
zɑ@@
koo@@
Feejiize
dɛcɛyom
bɑtu.
nyɑizei
ihinkɑ
ɑlikɑsi
gɑm@@
tɛkɔ
you?
hinz@@
rebu@@
blind
worketh
fuu.
binetɔnɛ
mɑɑ.
persu@@
journe@@
labor@@
hɑnyɑ
desir@@
y?
whol@@
dɑɑri
hɔndɛ
kɑnji.
one;
ɔr@@
ɑsi
Gɑrɛku
gɔrɛ.
rejec@@
afflic@@
salu@@
interpre@@
bɑɑyom
peace,
evil,
tabernac@@
neerɑ
uyom
himsel@@
villa@@
kunɑ@@
ibɛrɛ
ye.
people.
kuuru
ziibi
binekɑɑn@@
hɑm,
Tɑ@@
hunkunɑ
Jes@@
thyself
hence@@
dɑmbɑn@@
rob@@
hɑndu
Kpe.
bɑtumɑ
eri,
yɑɑrɑ
percei@@
lɑɑkɑl@@
tunɑndi.
Mɑsedoni
Lord:
themselves,
ted.
saints,
commi@@
neyɑ.
sɑɑ@@
boori.
Verily,
ɔl@@
kuru
marvel@@
bɑtu@@
Tir@@
Andebi
ɑfɔ.
kpɛɛnɛ:
Cæsar@@
Hero@@
tɑm@@
passo@@
earnes@@
dɛrɑndi.
Pharisees,
suff@@
yea,
evil@@
Whosoever
lɑ@@
deizɑkpɛ
kuɑ
utɛrɛ.
Ciini
fast@@
fɔɔ
sibi
gɑɑbi.
Spiri@@
things?
now@@
gure
dilig@@
gul@@
dɑ?
walk@@
righteousness,
do,
hungu@@
whence
bulɑɑl@@
ilɑ
Wɑnguize
icɛnɑ
Jerusalem@@
gɑri
sɑɑbu.
Gomini
jinehune
isɑ
will,
ground@@
Pɔlu,
words,
ly;
manifes@@
ess,
fɛn@@
gɑndɑ.
coo
Mir@@
witness,
Hɑlɑɑlɑ.
ɔngɔ
yom?
hypocri@@
ate,
gɔ
tɑɑm@@
Christ:
ndei.
twel@@
diyom
ence@@
ɑriyɑize
zɛn@@
ear,
cimi.
ɑnd@@
Lor@@
mɑɑ,
wrought
dun@@
beheld
Sɑ@@
sorrow@@
hɛrɛ.
Juda@@
bɛɛrɛkpɛ
bɑrikpɛ
rio@@
ɑlɑu
ɔrɔ
dendeni
kɔmɑ
veth
bread,
hɑizici
Moses,
earth.
tɔntɔnu.
susu@@
Judæa
fɑihã.
blood,
eateth
confid@@
meehɔ
eter@@
kɑmbɛ@@
ni.
Awo.
Greek@@
fathers
meigu@@
wɑɑsi
Fe@@
dɑɑbu
fɑi@@
thou,
ɛr@@
cɛsusu
tɑkɑ@@
tɑkɔ
owbeit
nɑɑnekɔ
fathers,
buyom
throne,
Genti@@
ɑndi?
Savi@@
wilt
Nyɑize
centuri@@
dumbu
Israel,
bɛrɛ.
tɑbɑtɑndi
et,
publican@@
ning,
ŋm@@
weep@@
yea
dɛrɑndi
tɑɑsi
behal@@
gunde
yɑmu
thee;
servant,
thee:
sokoni
lɑɑbu,
mysel@@
boor@@
ɑb@@
est,
tuurinyɑ
ch.
as,
fɔlɔnku.
beiyom
elec@@
honor@@
Amen.
nɑɑne,
sɑ,
another.
feeriji
tuuri
belov@@
wiyom
ry,
nodi.
ɑncɛ
hinnɑndi
su.
ŋmɑn@@
binebɑɑ@@
hear,
Hɑn@@
betu
knowest
Ari@@
Si
haply
bɛrɛɛ
oft@@
koni
deiz@@
zumɑndi
ikɔ
̃@@
tɑru
tɑkubɑ
out.
jɛ@@
ble,
Buuru
Cæsa@@
cini.
fellow@@
sɑnkulu
goeth
well-@@
righteou@@
mai@@
sed.
forty
fute
weenu@@
dow@@
Lord;
hɑlɑci@@
works,
relea@@
pɑti
ers;
Bɑɑ@@
ket@@
sɛll@@
moor@@
guru@@
tɑn@@
kɑni
ful,
there,
first,
stoo@@
sak@@
amaz@@
bukɑ
Til@@
Tifɑnu
fum@@
suppo@@
jɛrɛ@@
godlin@@
hɑnfɑni
nee.
Woe
good,
Fɑɑbɑ@@
kɑi@@
be,
boobo.
Wo
kɑɑyom
mother,
Bet@@
Beth@@
kpɑr@@
drink@@
heaven;
again.
faith.
wherewith
nation,
marria@@
cɛbɛ.
bɑɑnɔ
teeri
dom.
cɛnɑ.
hɑmɑ.
ɔng@@
jee
orɑ
kpei,
bumbum,
fɑyɑn@@
I,
things;
kɑm.
kɑriji
doorikom
wherefore
behold
ɑrɑn@@
given@@
ji,
gbeiize
Hundikpɛ
supplica@@
Wɑlɑ
lex@@
baptiz@@
thed
days.
hiji,
dow
Azi
tɔnyɑ
dɑɑmɑ
maketh
isɔ
six@@
Wɑn@@
perceived
name.
fied.
cɛ.
Abraham,
fɑnsɑ
bɑtukɔ
kɑru.
exceeding@@
Art
ɑi
en:
baptis@@
gɑziɑ
yomɑ
Coo@@
done,
myster@@
bɑɑbɑ.
parent@@
Fear
tɛrɛkpɑrɛ
wɔ?
Hɑmburu
jiyom
bɑɑru.
beire
sake,
gɑrɑ
kɑmbɛwo
fallen
nder
mɑni
Father.
ignor@@
sɑbɑbu
exa@@
Fɔ@@
sleep@@
Timote
fire.
comme@@
Hɑlɑɑl@@
thereof.
bɔrɔ.
gɑɑ?
evil.
power,
salute
elo@@
Ni@@
Bɛ@@
yɑmɑrɑndiyom
eth;
accus@@
fɔɔ,
ɑlɑ
bodi@@
um,
Ze@@
Jin@@
bɑnd@@
Antio@@
thou?
tɑɑb@@
Joseph@@
bɛrɛ@@
sɑɑle
re;
ers.
partak@@
stedfast@@
kɑkpɛ
hɑmini
bringeth
place,
Bɑɑkɑsine
meigu.
denden@@
sɑɑbuyom
prea@@
boi
abroa@@
jɛrɔ
dimiize
dumɑ
insomuch
sheep@@
tɑɑl@@
fɑrisime
neyɑ
morrow
dɑɑbu.
jiibi
tribul@@
strang@@
jing@@
kpein@@
weitɑɑci
bɑngu@@
jɛndɛ
kɔnkɔ@@
Apol@@
bɔ
doctr@@
boat,
sɑ.
tukunsi
gɑɑbɑ@@
gɑme,
foolish@@
yeen@@
bo,
mbl@@
ndɑ?
transgres@@
b,
verily
dɑmbɑngu
n:
ded,
gɔrɔkɑsine
ndɑɑ̀
gɑɑr@@
Yo@@
lɛ@@
eyes,
Ku@@
light,
gɑrɑndi@@
gunɑ,
Judæ@@
ity,
Samari@@
sɑbɑ.
Bu@@
casting
ɑndiyom.
Asi@@
biri@@
tɑlifi
rich@@
arra@@
uru@@
olom@@
glory.
manifested
eat,
ŋmɑɑrɛ.
ministered
aby@@
gospel@@
heareth
Yesu.
Sɑl@@
her.
hɑru@@
Brethren,
Nɑzɑrɛtu
kpeɑ
Sintine
tɑkɑri
ing?
hɛrɛ@@
gɑɑkɑsine
bɑɑkɑsin@@
bɔrɔhinnotɛrɛ
jɛndɛbiri
word.
Isɑɑkɑ
ds.
beast
cine
ther,
fied,
bɑmbɑtɑ.
l.
four@@
dufɛ
Ly@@
reckon@@
kuluu
neces@@
beast@@
Mɛsiyɑ,
hɑlɑɑlɑndi
”.
men;
Antiɔku
yourselves,
crucified
dɛɛnɛ
Deizɑ
tɑbɑ@@
calleth
everthe@@
tres@@
after@@
tɑbɑi
siikɑ
widow@@
ɛkpɛ
ale@@
bɛɛnɛ,
mɑɑni.
Kɑsɑriɑ
tidings
Israel.
ered,
wɑtɛ
kpɛɛnɛ,
kɑnkɑmi
only,
bindi.
dɔntɔ@@
ye?
eat.
Dimi
plagu@@
nyunu
Jesus:
up.
gɑɑrɛ.
alt
s’
tu,
Mɑmɑci
jɛkom
cimɑndi
by,
mercy,
tɑngɑri@@
yu
ɛndɛ
vest
Jerusalem.
law.
sɑwɑrɑ
mee.
libe
Rab@@
Lamb@@
ir,
abode
Oò,
risen
servants,
zeenɔ
ɛrɛɛ
wɑɑsi.
ɑɑni
ciro
own,
Kɑito
where@@
ump@@
Jam@@
ɑsi@@
ve.
cɛnsɛ
Ephes@@
le;
wɑɑ@@
Wherefore,
season@@
Ween@@
sake.
gɑ.
mooru
hɑlɑ@@
ard,
Adɑm@@
zɑmbɑ
ekpɛ
kpɛ,
Abraha@@
ŋmɑɑyom
ei.
hune
ɛ?
rɔ
hat@@
Pi@@
kpɑɑr@@
zar@@
Kɑi@@
zinɑ@@
zɑkɑ
gosp@@
ɑɑdɑntɛ
woman,
ɑɑr@@
yɑrutɛrɛ
Hund@@
gɑnd@@
ŋmɔn@@
kɑnkɑm@@
ɑruɑ
weimɑ
childr@@
dɑɑr@@
bukɔ@@
row@@
wikɔ
whereunto
ɑdu@@
thereof@@
ɛnd@@
grea@@
erna@@
Yohɑn@@
ɔll@@
nɑɑn@@
yɑmɑr@@
ven,
wɑngɑr@@
tom
also@@
saint@@
Hɑnd@@
bɔr@@
dest
fooli@@
ku.
ɑi@@
ɑɑl@@
be.
ɑɑli
hɑri@@
Pha@@
gɑɑbi@@
Gun@@
bɛɛ@@
dir@@
fɛ
kpɛɛnɛ@@
ikɑ
gɑr@@
dee@@
cɑ@@
Hin@@
jii@@
zom
wɑli
dɛr@@
kɑs@@
ɑɑru.
Yɑ@@
cast@@
hɑntu@@
Isi@@
ɛnɛ
alway@@
cip@@
Pharise@@
tɑng@@
wɔ@@
Galile@@
eri.
kpɑɑ@@
sus@@
ɑm.
zen@@
ɑɑ.
Mɛ@@
Yɑkɔ@@
eech
feeri@@
bines@@
dst
gɑnɑ@@
Yes@@
yɑn@@
ulonzom
zum@@
hɑntum@@
hã.
miize
mɑr@@
guize
ciri
kɑsin@@
goono@@
nɑɑne@@
bumbu@@
zeen@@
oul@@
Nɑ@@
tak@@
Teach@@
Gree@@
ost@@
Sɑul@@
uɑ
zii@@
bɑɑbɑ@@
Mɑri@@
Bine@@
clea@@
marv@@
rise@@
Fee@@
Nɑzɑrɛ@@
boobo@@
Barna@@
tɑku@@
Pil@@
burɑdɑm
num@@
Fa@@
lisi
hɑl@@
fɔlɔn@@
memb@@
sted@@
nyɑ@@
kɑl@@
biri
wif@@
bɛ.
rɑ@@
ɑlikɑ@@
ɑngɑ
Where@@
gbei@@
selves,
stum@@
ɑnɑm
zɑn@@
aft@@
ɑbɑ
mɑɑn@@
nyɑiz@@
strai@@
sɔn@@
multi@@
zi
Sal@@
bɑm@@
Aw@@
Bin@@
suppli@@
ria@@
tilɑ@@
Set@@
deliver@@
wɑsu
gɑzi@@
ɑɑbɑ
cim@@
hink@@
ɑnu
Filip@@
dɑ.
cet@@
uri
sɑw@@
Hiro@@
ɔm@@
tukun@@
ɑru.
jiize
ɑɑn@@
ɛku
seco@@
uu
sɑn@@
rɑ
ulɑ
ɑlif@@
ily,
Abulɛ@@
Wo@@
ɑnde@@
ree@@
cerning
hold,
kɔn@@
jine@@
Ɛ
fɑɑr@@
hɑrihi@@
yɑr@@
dulum@@
teou@@
Yosɛ@@
bba@@
Pɔl@@
manif@@
gund@@
bitɛrɛ
oured
yet@@
unɑfi@@
Ande@@
ulon@@
dɑɑrum
writt@@
ndɑ@@
ɑfi@@
zu
Esɑ@@
bɑk@@
ɔfɔ
bɔrɔhinno@@
ɛrɛyom
Nɑɑn@@
dumbu@@
ò,
kɔrɔ
tilɑ
Antiɔ@@
sɑbɑ@@
old@@
Anti@@
ify
uci@@
fted
sup@@
lai@@
hatsoever
esta@@
Sp@@
Ja@@
ɑidi
at,
wɑn@@
Ibi@@
testimon@@
kɑsine
dɔntɔnei@@
tid@@
straight@@
ea,
Gɑr@@
hap@@
ndɛ
ɛndɛ@@
ɔkɑ@@
ros@@
gres@@
fɔl@@
ungu
wur@@
ɑɑdɑ
Ɔ
ɑnz@@
bɑɑbɑ,
burɑ@@
jihɑm
fɑni
bɑrik@@
ɔne
Isɑɑ@@
unyɑ
tɑlif@@
Ezipu@@
bɑmbɑ@@
dɔn@@
zɑr@@
Sint@@
hɑizi@@
Isirɑ@@
urinyɑ
ɑlikɑ
sɑb@@
each@@
Yuif@@
Nyɑiz@@
ɑɑrɛ
tɔntɔn@@
bɛɛn@@
ɑtu
Ɔ@@
gurugu@@
Mɛsi@@
bund@@
bas
ikom
nde@@
owbe@@
Aft@@
exce@@
Tif@@
Ɛ@@
ɔnɛ
cumci@@
^@@
Moi@@
erɑ
gɔrɔ@@
ween@@
ɑriyɑ@@
cedon@@
dɑntɛ
Dei@@
ɑnzɛrɛ@@
eibɑɑi
Hɑm@@
sand@@
sedoni
Brethr@@
Bɑɑn@@
dend@@
eibɑɑ@@
omi@@
ɑlɛ@@
tɔnei@@
roa@@
etɔnɛ
erem
kɑɑnekpɛ
jɛndɛ@@
dili@@
bring@@
fɑrisi@@
somuch
Nyɑ@@
ɛɛ
clai@@
ɑ̀@@
doni
uda@@
Hol@@
Dɑfi@@
Æ@@
ɔkɑci
;@@.
lɛ
mɛ
ɖò
tɔn
nɔ
ɖɔ
kpo
dó
nú
mǐ
wɛ
ɖó
nǔ
ɖé
nyí
ǎ
sixu
jí
sín
gbɔn
Mawu
wà
enɛ
mɔ
ɖè
wá
bǐ
sɔ́
mǐtɔn
xá
lɛ́
Biblu
kpɔ́n
xó
hwenu
ɖokpo
ɖevo
yì
mɔ̌
lee
yí
yetɔn
gbɛ̀
Jezu
tawun
bló
d’alɔ
alǒ
xlɛ́
gbè
kplɔ́n
mì
gègě
ɖěɖee
zán
nukún
gudo
xwè
Ðò
gbɛtɔ́
tuùn
bonu
byɔ
kún
Mǐ
azɔ̌
Enyi
Amɔ̌
ɖu
hɛn
zɔ́n
kú
Mɛ
vǐ
n’i
Nɛ̌
nɔví
gbigbɔ
Enɛ
towe
Klisanwun
ali
nugbǒ
ɖɔhun
ɖagbe
nyɔ́
Nǔ
linlin
agun
alɔ
cí
lin
tɔ́
jó
wutu
Un
nyì
jló
Etɛ
lobo
nǔ@@
kpé
kpɔ́ndéwú
taji
elɔ
tɛn
sɔgbe
ɖi
wɛn
có
fí
mɛ@@
wǎn
ɖaxó
hun
xɔ
kɔn
wema
nyɔnu
b’ɛ
sunnu
gɔ́
enyi
nukɔn
hugǎn
wanyiyi
huzu
Tɔn
lɔ
ɖebǔ
ninɔmɛ
gbɛ́
Hwenu
tlɛ
wiwa
tamɛ
Ð@@
wlan
nɛ
sinsɛnzɔ́
ganji
hwɛ
xò
nù@@
amɔ̌
lanmɛ
ví
jla
akwɛ
mɛɖé
awǎjijɛ
mɔhun
wuvɛ̌
tɔ́n
dìn
Jaan
vo
sè
dò
jlǒ
Ðó
ɖě
Etɛwu
nya
gblamɛ
ayikúngban
gǎn
hudo
xwé
kplé
Xó
xwédo
tò
hlɔnhlɔn
kpó
hú
dɔn
nùɖiɖi
nukɔntɔn
sù
ɖ’ayǐ
tinmɛ
Axɔsuɖuto
ayǐ
wusyɛn
gbeta
jɛn
kpɔ́
sɛ̀n
sinsɛn
ɛn
togun
Nú
sú
asì
xomɛ
Nugbǒ
kàn
yɔyɔ̌
nyanya
wè
égbé
tíìn
Nù@@
syɛnsyɛn
fɔ́n
hw@@
ylɔ
yeɖée
gbɛzán
Kúnnuɖetɔ́
gosin
Klisu
fífá
baptɛm
xwedó
emitɔn
Ði
kpò
hǔn
ɖexlɛ́
gbɔ
ɖe@@
Ee
nùɖé
acɛ
kpowun
xɔ́ntɔn
akpá
akpáxwé
mɛjitɔ́
flín
mímɛ́
sɛ́dó
Davidi
gbé
vɛwǔ
mɛsɛ́dó
ɖeji
ɔ́@@
jɔ
azɔn
mɛxo
wǔ
kanbyɔ
lixo
d’eji
tagba
ahwan
nùnywɛ
Nɔví
hwebǐnu
kɛ
asú
tɛntin
ahwanvu
Izlayɛli
xà
jɔ@@
hwe
w’azɔ̌
ayi@@
Xà
sísɛ́
lè
winnyawinnya
toxo
mǐɖée
ɔ́
Lee
nukúnnú
nyikɔ
jixwé
xota
tuto
mɔkpan
zé
sɛ́n
ɖ@@
lɛkɔ
Kpɔ́n
wlí
Ðɛh
jijɔ
sí
Satáan
tɛnkpɔn
finɛ
d’@@
bá
Nɔ
kpéwú
jì
jɛxa
Kɔ
kɛɖɛ
Jwifu
ɔ́n
gán
gbéjé
hɔn
gbexosin
kpá
yiyi
jiwǔ
bɛ́
lɛ́vɔ
kanweko
gbeɖé
jɛji
má
sɔnǔ
sísí
agbaza
sɛkpɔ
gɔ́n
kpɛɖé
d’ewu
sɛ̀
nugbodòdó
azɔ̌@@
ɖiɖó
azǎn
loɔ
mlɛ́mlɛ́
hwɛhwɛ
gbeji
lɛn@@
wu@@
éɖée
kpodo
gbesisɔmɛ
Mɔ̌
nyɔna
alɔkpa
gbejinɔtɔ́
ɖesu
Tɔ́
Ðɛhan
alijitɔ́
sìn
Mɔyizi
ɖó@@
Piyɛ́ɛ
hwe@@
ɔ̌@@
Nùx
ín@@
xɛsi
ayihɔngbe
ɖiɖe
zinzan
án
alixlɛ́mɛ
nukúnmɛ
Matie
xoɖɛ
ɖí
tɛ́n
akɔnkpinkpan
xósin
vɔ@@
afɔ
Gɔ́
yawu
vɔ
ɖíe
dó@@
xwi
cobo
vɔ́
zɔ́
sɔ
hwɛ@@
LƐ
wɛnsagun
nùɖuɖu
ɛ́@@
biblo
sɔyi
nɛ̌
ɛ́n
atɔn
íi
hwɛjijɔ
gbɛ@@
gbɔ@@
hwɛhuhu
yɛ@@
gbi@@
Hlɔ
ǎn
Mawuxówema
nùnina
nǔwiwa
táan
syɛn
ɖ’emɛ
xóɖiɖɔ
alɔ@@
nukúnɖiɖo
sɔgudo
Bɔ
xixo
ɔ̌
Mɛsɛ́dó
vivǐ
dɛ
víví
Ablaxamu
ɖɛ
nɔte
glɔ
vɛ́
gblé
Ali
axɔsu
Sɛ́n
acɛkpikpa
ɖɛ@@
ée
wɛnɖagbe
vovo
setónú
Tan
zun
mimɔ
ayixa
etɛ
agɔ
kún@@
kancica
sɛ́
ɖiɖɔ
Xó@@
Jozɛfu
yi@@
xo
Az@@
ɖesunɔ
tó
Mavɔmavɔ
Bǐb
sɛntɔ́
nùkanbyɔ
jlɛ́
tó@@
Aklunɔ
nabi
Ebl
lín
Adamu
hwiɖée
Vǐ
lidǒ
bǔ
tɛnmɛ
kúnkplá
dɔkun
Axɔsu
bǐbɛ̌mɛ
nukúnnúmɔjɛnǔmɛ
gbɛ̌
Ezek@@
aca
nǔwukpikpé
gɔn
kpɛví
hwexónu
hagbɛ̌
Jɔbu
kplɔnkplɔn
HAN
Nǔ@@
mɛtɔ́
dandan
alɔdo
klewun
Nu@@
zɔn
zɛ
nwt
kpléɖókpɔ́
yɔ@@
mɛsɛntɔ́
zɔ
axɔ@@
Xwè
mɛtɔn
nùkplɔnmɛ
tutoblonunu
mitɔn
ún
hwɛ̌
xwlé
Hlɔmanu
ajɔ
gbejininɔ
jinjɔn
ɔ́n@@
nú@@
kplá
vívɛ́
xw@@
Kpl@@
lɔmɔ̌
ɛ́
ún@@
ɛ́n@@
jǐ
kudeji
hàtɔ́
wěɖexámɛ
fó
sɔmɔ̌
ɛ̌@@
ɔn
gbà
blawu
ɖeɖɛ
Gbɔn
nina
sinsɛn@@
ɖo@@
hweɖelɛnu
Daniyɛli
Nɔwée
ɖ’alɔ
ǐ
Pi
linkpɔ́n
Timɔtée
Gb@@
hwi
watɔ́
Eza
akɔta
omɛ@@
Sala
Linlin
Nǔbǐwukpétɔ́
kɛ@@
jonɔ
atɔ́
lu
alɔwliwli
ɖótó
fínfɔ́n
akpàkpà
Hu@@
cobɔ
wɛ@@
áa
úmɛ
ɖi@@
ɖyɔ
xógbe
hwɛhutɔ́
ɖu@@
tɛn@@
Xota
sukpɔ́
kú@@
wemafɔ
Dó
ɖ’ayi
mavɔmavɔ
ɖɔ@@
Hlɔma
bú
hwlɛn
gbá
jlɛ̌
klán
xóxó
cé
mǐɖesunɔ
éɖesunɔ
xomɛnyínyɔ́
Hw@@
Efɛ
suúlu
Jeluzalɛmu
cyɔn
jininɔ
sɔ@@
ninɔ
ě
ín
H.M
adohu
dá
wě
tɔ́@@
asure
bunɔ
ɛnu
ǎ@@
Ezayíi
yɛ̌yi
sísɔ́
́
rest@@
aj@@
gle@@
dido
walɔ
gudogudo
afɔ@@
osi@@
̀
xó@@
lɔn
así
wemaxɔmɛ
hwenɛnu
jl@@
xixa
Azɔ̌
Kpɔ́ndéwú
wegɔ
tlolo
ati
Kan@@
huzuhuzu
ɔw@@
Wema
mɛɖée
jijɛ
fɛ́nú
ɔntɔ́
ɖe
Lin
ɔ̌n
cá
lɛ́@@
ganjɛwu
ahwan@@
nùjɔnǔ
Bǐbɛ̌mɛ
sínsɛ́n
jla@@
Babilɔnu
zɔ́@@
yɔ
nukúnkpénuwutɔ́
mɛtɛnkpɔn
lilɛ
gǔ
xóɖɔ@@
vlafo
̌@@
dogbó
Ta@@
titewungbe
linu
ahwanfun@@
jɛnu
Wem@@
wl@@
ml@@
Gbe@@
lis@@
biba
esty
kpannukɔn
Betɛli
mɛ̌
nùwanyido
nukúnɖeji
wlantɔ́
Joz@@
Gu@@
Mɛɖé
ɖokponɔ
ax@@
kannumɔgbenu
mɛxomɔ
yeɖesunɔ
Sín
Égbé
zǎn@@
Luki
ló
d’akpá
Gbɛtɔ́
xo@@
Wanyiyi
kannumɔ
nyla
Atɔxwɛ
zǎn
nukún@@
wɛnjlatɔ́
sà
dɔ̌n
Nǔɖexlɛ́mɛ
kɛ́n
kplɔn@@
awakanmɛ
kpan
hwen@@
lobɔ
ɖibla
nyi@@
Kɔlɛntinu
ɖekúnnu
suɖuto
mɛɖebǔ
ɔnu
lɛlɛ̌
Ebléegbe
nùkplɔn@@
wemata
rac@@
xwi@@
Mawuxó
ɖagbeɖagbe
kanɖeji
jiɖe
ǔ@@
iyasi
tóo
nùɖíɖó
ǐ@@
livi
vɛ̌
gbɛxixɔ
gbeyiɖɔ
ɖókpɔ́
vǐ@@
Eblée
Gbɛ̀
tɛmpli
j’@@
ví@@
alu@@
ɖuɖu
Hwɛ@@
nukɔnmɛ
miɖée
xomɛsin
Bonu
Loɔ
alaxɔ
bǎ
án@@
kúnkan
Mali
ɛ̌
dɛɛ
gǔ@@
kpaca
Dìn
xwégbe
wutɔ́
xɔ@@
mɔ̌to
lɛdo
cyan
adingban
vivɔnu
sible
junjɔn
ado
wlɛnwín
Gbɛ@@
BL@@
áan
wun
Can@@
malin
lɔ@@
Nǔɖe
ɖée
Hweɖelɛnu
jlɔjlɔ@@
Ðɔ
xlɛ́mɛtɔ́
gal
akaxixo
bǔninɔ
ahw@@
gǎn@@
kwín
Nukún@@
wɔn
nùblibliwiwa
kpl@@
tomɛ@@
nùɖitɔ́
kill@@
géé
promo@@
nyɛ
lem@@
sisa
rewar@@
Ɛvu
Henɔci
Nukɔnmɛ
Mɛ̌
Kolo
yɛ
fá
aklunɔzán
Stu@@
hurch
flú
gb’akpá
mɛɖéekannuninɔ
Goli@@
Akpáxwé
ɛntɛnɛti
agba
Jaki
kɛntɔ́
nǔɖɔɖ’ayǐ
mɛɖesúsínínɔ
kpinkplɔn
recogniz@@
ɖiɖo
nɔzo
masɔgbe
etɛwu
Af@@
zun@@
pɛ́@@
wex
sú@@
éyɛ
Ji@@
kúnnuɖenú
wé
Gbè
dín
axɔ
kpɔn
hwan
kúnnuɖe@@
Gbɛɖotɔ́
Kpo
Tu@@
númɛ
gbá@@
Alǒ
xɛ
mǐ@@
bɔwǔ
volun@@
Gbigbɔ
Wɛ
dí@@
tɛɖɛ̌
gbakpé
nùjlɛdonǔwu
gbě
Ðaxó
Nùnywɛxó
cejɛn@@
lɛ̌
hwɛ́
Fili
savɔ̌
Wɛn@@
tiva@@
ɛ́ɛ
ado@@
anu
dónúmɛ
mɛɖesunɔ
There@@
gbò
Fin@@
xomɛ@@
Ja
Salomɔ́ɔ
Mɛjitɔ́
We@@
plied
tlɔlɔ
zɔn@@
cɔ́
tuùntuùn
dents
xwewu
kplɔn
lan
didó
kɔnyiyi
ɖenu
tivity
Sɔ́
Sɔgbe
nùwalɔ
alíi
dóhwɛ
abǐ
onu
céɖécéɖé
xomɛhunhun
Hwɛhwɛ
jlɔjlɔ
wlan@@
Flín
ɖ’@@
atín
d’ayi
vod@@
sí@@
nyiɖée
Ep@@
gbɛmɛ
jɛhun
BI@@
xɔsa
xwiti@@
Nin@@
gesí
n’@@
gò
ɖiɖi
Flǐn
atɔ́@@
vlamɛ
lě
Por@@
só
mɛɖesɔhwe
wǒ
kplɔnmɛ
doya
ɔmɛ
wɛnɖagbejijlazɔ́
wanyiyinɔ
hlɔn@@
wam@@
Glɛkigbe
kpaà
Ó
ganjɛ
Australi@@
wuntun
Hwɛjijɔ
tún
sisɔ
xókwin
nǔnyany@@
yá
acé@@
foc@@
kɔ́n
blɛ́
TƆ@@
sɛ́@@
Jɛfutée
ɔ́ɔn
adly
Samuwɛli
Sinsɛn@@
ɔy@@
Wɛnɖagbe
kplékplé
experien@@
mit@@
ared
Ò
dokú
itɔ́zɔ́
mya
Ejipu
convinc@@
Kpléxɔ
lilɛdogbeɖevomɛ
tɛgbɛ
jlɛ@@
vǔ
Bap@@
maɖóblɔ̌
Lefèv@@
lɔ́n
yitɔ́
ɖetɔ́n
ǎn@@
bɔkun
nùnywɛ@@
Jephth@@
jinu@@
pare
Awovi
ovinú
kpin@@
baɖabaɖa
surpris@@
wǔjɔmɛ
efs
Mari@@
nyin@@
Alɔ@@
akɔ@@
nǔɖokan
vɛ̌sex@@
gbɛ̌ta
akpɔ̀
LI@@
weak@@
tɔji@@
Jɔb
síìn
agne
ditions
Tit@@
aki
hwlɛngán
Arth@@
palaɖisi
plo@@
Nukɔntɔn
conver@@
rele@@
zízé
alij@@
dwide
́@@
MA@@
afatɔ́n
gbló
Ano@@
Wu@@
kpɛvu
hɛnnumɔ
zɔwatɔ́
mɛɖée@@
ɖeɖayi
kewise
yí@@
tment
Tín
lǒ
ɖɔtɔ́
eag@@
vɛ@@
hwi@@
ɖ’eji
ámɛ
tí@@
àn
úxwlé@@
ɖ’e@@
lɛn
axɔmɛ
nyí@@
pu
wun@@
dǒ
wǔ@@
gbó
inɔ
òdó
wem@@
iyɛli
Ef@@
hɔn@@
paragrap@@
ɔtɔ́
kúngban
yɛn
kpan@@
onu@@
itɔ́
hwex@@
ɛli
suppor@@
ǎjijɛ
syɛn@@
Xo@@
bǔ@@
opportu@@
Sins@@
lafo
t’s
Mawuxó@@
Ez@@
nugb@@
suɖu@@
Í
azɔ́
xu
eta
Nùnywɛ@@
ɔ́ntɔn
ɖagbe@@
amu
sagun
ɔna
wus@@
iel
̌
ɔ́ɔ
ovi
ɛsi
awu
Ù@@
ɖitɔ́
ɖa
odòdó
Nùny@@
lé
agbaz@@
suú@@
jlatɔ́
awinnya
maɖó@@
Ðɛ@@
alaɖisi
unɔ
yɔy@@
lolo
gation
xámɛ
enu
ɖiɖ@@
train@@
gbɛ
kúnnu@@
donǔwu
HA@@
ile@@
ritu@@
ǔn
Hwe@@
kplé@@
gbɛ̌@@
ala@@
ɔgbe
onɔ
ɔwatɔ́
jɔmɛ
xwé@@
Dan@@
xa
wɛn@@
Ǔ
ɔví
àkpà
Ǎ
tɛm
Kún@@
ɔ̀
tivate
jlɔjl@@
xlɛ́mɛ
viv@@
kponɔ
ude@@
ɛti
kpi@@
mɛ́
ègě
vɔ̌
avi@@
Bibl@@
xwɛ
Kplé@@
ǐn
Axɔ@@
nukɔn@@
exosin
ěɖe@@
ɛkpikpa
kpé@@
hlɔn
rap@@
lǐn
overei@@
lé@@
ɖí@@
aka@@
d’e@@
Ú
Jɔ@@
kpo@@
yiɖɔ
wɛnɖagbeji@@
Kɔlɛn@@
kwin
jitɔ́
hɛn@@
ɖɔɖ’ayǐ
nɔ@@
kpénuwutɔ́
ava@@
alɛ@@
xlɛ́@@
ɖotɔ́
Hen@@
zuhuzu
númɔjɛnǔmɛ
xixɔ
kpikpa
ɛntɔ́
wut@@
territ@@
Ða@@
ɖa@@
Glɛ@@
donǔ@@
ɛ́nú
jlazɔ́
garding
gé@@
mí@@
mɛɖesɔ@@
cica
hɔngbe
hunhun
zinz@@
ilɛdogbeɖe@@
Lin@@
fí@@
Ì
lay@@
Jɛ@@
lɛnwín
ěɖexámɛ
ɖée@@
nùblibl@@
adin@@
mlɛ́
Ǔ@@
hl@@
ɖenú
lunɔzán
promis@@
nyawinnya
wunt@@
wliwli
bǐ@@
ɖes@@
nuɖetɔ́
jlɛdonǔwu
ǔmɛ
tuùn@@
vomɛ
ɔkun
Eno@@
ɖíɖó
bǐnu
Cre@@
vɛ̌@@
ɔ́zɔ́
lilɛdogbeɖe@@
Babil@@
bǐwukpétɔ́
dand@@
blɔ̌
ayíi
tinu@@
ibl@@
hwlɛn@@
explain@@
éw@@
hus
tewun@@
wɛnɖagbe@@
lunɔ@@
̀n
sín@@
̌mɛ
ìn
mas@@
gbenu
sib@@
ili
toblonunu
akanmɛ
nw@@
Psal@@
gbé@@
mɔ̌@@
akɔn@@
xwe@@
ich
numɔ
wanyido
wli
Eji@@
jɛwu
kanwe@@
gations
kannuninɔ
Ǎ@@
ónu
nity
wanyi@@
tog@@
atɔ́n
ɖisi
ishers
nyínyɔ́
anmɛ
b’@@
ěɖee
blonu@@
osin
ganiz@@
kúnnu
gbesi@@
ibla
humil@@
Nukɔn@@
kpénu@@
kpinkpan
Kɔ@@
wín
etermin@@
omɔ́ɔ
Jeluzalɛ@@
wany@@
ɔhun
jɛn@@
ɖis@@
yɛ̌@@
ovin@@
othy
regul@@
tɛnɛti
gudo@@
ónú
lewun
nyany@@
udeji
lamɛ
sɔmɛ
innya
xwlé@@
wli@@
úsínínɔ
Samu@@
’azɔ̌
dogbe@@
wukpikpé
ɖé@@
Izlay@@
appropri@@
bibl@@
nùblibli@@
zí@@
Corinthi@@
Ì@@
̣
Ǒ
Ě
enge
kpɔ
wifu
gb’@@
xomɔ
oney
Â@@
jun@@
Scho@@
mɛɖes@@
augh@@
mɔgbenu
blibl@@
unɔ@@
lunɔ
Gbi@@
sins@@
Lef@@
jé
cé@@
lɛ́mlɛ́
kpà
tée
jɛnǔmɛ
irst
toblonu@@
ogn@@
org
tinu
Youn@@
Mawu@@
olo
áxwé
overeignty
xom@@
ɖokan
tury
ɖɛ̌
èv@@
nyi
«
»
aɖa
wukpétɔ́
kannu@@
Ǒ@@
Ù
númɔ@@
ɔci
Ě@@
ɖab@@
àtɔ́
parag@@
mpl@@
ppor@@
Bǐ@@
SON@@
wanyiy@@
gě
ɖexlɛ́mɛ
Tod@@
xamu
Mɔyiz@@
ɔ́nd@@
fín@@
wɛli
ɔlu
mpli
kuma
Allah
daga
shi
Kuma
suka
mai
cikin
abin
za
cewa
iya
Jehobah
waɗanda
kasance
zai
nan
gare
wani
wannan
yake
suke
wanda
haka
yana
suna
bã
mãsu
Lalle
zuwa
lalle
sai
ƙ@@
masu
kai
zama
sunã
'
yadda
mutane
kuwa
musu
Tsarki
wata
Littafi
wasu
nuna
yawa
'@@
'an
bai
kamar
ĩ@@
insa
gaskiya
insu
gaba
yar
dukan
ɗ@@
zã
kyau
sosai
har
waɗannan
cin
dõmin
domin
duniya
hakan
amma
yaya
ciki
Muka
yar@@
mana
Sa
Amma
fãce
kansu
Yã
haƙĩƙa
Mun
kada
ĩmãni
masa
ũ@@
Shin
akwai
muka
sa’ad
inmu
sani
Shi
kar
Sai
Idan
amfani
wurin
taimaka
irin
Da
mafi
mutãne
wajen
bauta
kamata
lokacin
ƙasa
lõkacin
mutum
mun
jin
ãwa
muku
rai
sanya
cẽwa
tsa@@
muke
ɓ@@
shekara
ƙa@@
sũ
biyu
ɗaya
Wannan
Bulus
ẽ@@
sabõda
farin
tare
girma
Kiristoci
mã@@
bayyana
abu
ƙar@@
kuka
kawai
ɗan
aiki
magana
kõ@@
alhãli
shir@@
tã@@
ansa
nufin
gaya
lokaci
ɗan@@
Yanã
tana
farko
sha
sama
ƙi
ƙarfafa
yanã
sã@@
yau
bukatar
una
Ubangiji
kõ
dã
yã
soma
Day
inku
gab@@
bã@@
kã@@
muhimmanci
shin
ƙa
azãba
Za
abubuwa
wa’azi
kuke
aikata
kunã
aminci
fã@@
bin
koya
bisa
Shaiɗan
za@@
Say
Ko
saukar
kõme
cika
's
kãfirta
'a
tsar@@
ɗa@@
anci
dai
fin
aikin
ansu
Yohanna
Saboda
bar
wã@@
mata
inka
rubuta
samu
ãn@@
maka
karanta
annab@@
bayan
tabbata
ẽwa
halitta
Menene
sami
Sa’ad
ila
mutanen
Hakika
mar
misali
iyar
bãbu
gani
Shĩ
anta
ƙauna
yã@@
Ubangijinka
tuna
hikima
dabam
kanku
hankali
ƙasar
Yake
dace
waɗansu
Abin
sanin
amin@@
Ƙ@@
ɗin
ganin
Wa@@
dar
Yana
wadda
hidima
awa
Zabura
Kamar
cikinsu
taƙawa
Kirista
tsarki
ɗe
cikinta
tat@@
rayuwa
sar
addu’a
hanyar
ƙarya
mini
ĩ
sammai
inta
kira
Kada
kanmu
hala@@
ensu
gargaɗi
kula
aik@@
kuna
duk
abubuwan
mun@@
riƙa
ƙwarai
inda
fahimci
bayyan@@
Ko@@
hanya
shakka
kana
tun
dab@@
ciyar
Wane
ɗi
arsa
Shaidun
shafi
ruwa
baƙin
Dauda
ruhaniya
ƙai
jir@@
kũ
rab@@
shiga
shĩ
dā
Bitrus
Mene
iyar@@
laifi
saur@@
tãre
Ɗ@@
yanzu
Sabõda
kashe
mani
rashin
samun
Muna
ƙaunar
isa
gõ@@
aure
alhẽri
aikatãwa
zunubi
faru
faɗa
yawan
Duk
rã@@
koyi
biyayya
haƙuri
shen
ign@@
’a
ight
mutuwa
rãnar
Matta
ɗa
All-@@
ious
atar
babu
wato
ɗaukaka
yarda
ikilisiya
Musa
ira
Bayan
Suka
Alal
maza
gãfara
guda
tafiya
ƙaryata
rahama
Waɗanda
hana
gã@@
yan’uwa
kwan@@
ƙarfi
Waɗannan
hai@@
matsayin
arin
Wanda
Ya@@
kafin
aika
taɓa
kusa
ƙun@@
shaida
Karanta
ɗauki
Mulkin
Masani
dare
Messenger
ura
Muhammad
daraja
taimake
zãlunci
halaka
arsu
Manzo
fit@@
kir@@
ɓata
mũminai
kawo
littafin
fita
tawa
bãyan
wancan
Manzanni
yay@@
tunani
Babu
Kalmar
wuya
kowane
baya
fitar
Domin
tattauna
ƙã@@
cikinsa
Isra’ila
ruhu
’uwa
jã@@
Wani
kafa
kasancewa
ane
kake
Rãnar
dã@@
ƙin
tã
fahim@@
dũniya
mutu
uku
Lãhira
adalci
Wasu
musamman
zuciyar@@
gida
shiryar
ƙarshe
Ka@@
kãfirai
mayar
mata@@
Yoh
Bã
wane
zuciya
ƙan@@
nazarin
abada
rayuwar@@
Daga
Mas@@
dũ@@
ƙara
mutãnen
yarwa
saboda
Mulki
mũ
ãy@@
jẽ
nasara
ayyukan
umur@@
taron
tunanin
zauna
Ina
Yaya
manz@@
yayya
ƙir@@
babban
und
rana
daidai
duka
lura
Hakan
tsanani
kaci
alkawari
uban@@
Mũ
maƙ@@
'am@@
hak@@
tas@@
shekaru
gabãn@@
inSa
albarka
kaɗan
juna
anã
Ubangijinku
Ishaya
Isra’ilawa
gwa@@
onsa
ƙas@@
Mũsã
bangaskiya
Waɗanne
waj@@
hukun@@
Littãfi
bãyar
gama
anin
tsammã@@
inã
bukata
atan
sauƙi
bau@@
gaban
ma’@@
therein
taro
Ubangijinsu
Uban@@
faɗi
wahala
ambata
ani
doers
kã
al’a@@
alin
ions
addin@@
yini
abinci
Ashe
tsakãn@@
Munã
fiye
hukunci
amince
nake
ranar
baftisma
õy@@
matattu
Ibrahim
la’akari
nĩ
ikin
daina
tawali’u
ɓa
ɓa@@
riƙi
hada@@
Ã
Us
zaun@@
tsõron
Ra@@
fulfi@@
Aljanna
nau@@
waye
ãl@@
ƙasa@@
nin
ƙasã
Alƙur
Luka
tãwa
ray@@
Ƙari
sunan
tance
yen
taimakon
zamanin
bincika
Suna
nẽman
ãni
ƙaun@@
zur@@
Kno@@
shawara
hidimar
manzo
kaɗai
ẽ
dogara
ayyu@@
wuta
Manz@@
'ãni
wace
sakamako
sau
Ubangijinmu
jũya
mutu@@
ikon
Prophet
ayyuka
ƙon
zunu@@
dal@@
haɗ@@
kama
mãtã
bada
sanar
koyar
taimako
Romawa
tafi
kiya
umurnin
saka
ƙe
mugunta
zan@@
tabbatar
azãbar
Yan@@
iyal@@
bishara
Mafi
marar
riƙe
biy@@
halin
armu
ƙoƙari
Fire
gor@@
yanayin
Kai
iya@@
ewa
Yin
albar@@
tarsa
girman
kanã
iyya
nã
azzãlumai
amsa
mutumin
shã@@
ibi
halit@@
kwatanta
karɓi
bari
ãne
motsa
tabbaci
wa’azin
godiya
nufi
karɓ@@
madawwa@@
duba
gaske
ilmi
ƙoƙar@@
tsakanin
irs
sãmi
tambayar
amf@@
birnin
mutãn@@
dõ@@
anku
Ibraniyawa
sakamakon
karan@@
disbelieve
fara
gur@@
gari
ensa
Merciful
kur@@
dens
falal@@
abi
kõwane
torment
Zab
lã@@
Ayuba
ƙar
ɗã
yara
tarwa
kawa
kiran
gin
kya@@
lãbã@@
Sha@@
ãli
kwa@@
warsa
misalin
Ro@@
sha’a@@
ɗauke
disbelievers
hali
kusan@@
annu
yansu
ya’@@
bay@@
haɗa
Ubangijin
hann@@
addini
yanayi
anni
tsakãninsu
jinkir@@
Bari
gidan
--
bautãwa
Ƙa@@
muwa
kark@@
jũna
ɓar@@
kõma
ruwan
cike
magan@@
sas@@
zã@@
bũ@@
hankal@@
ninku
Yahudawa
cik@@
yal@@
rar@@
gaskata
dat@@
'a@@
Who@@
daidaita
uni
Fir
halar@@
kwat@@
alheri
yanke
daɗewa
ƙarni
buk@@
maganar
kanka
’az@@
dattawa
Urushalima
dam
’a@@
easure
incre@@
fĩ@@
yin@@
ManzonSa
’ar
allo@@
tered
anmu
fus@@
neman
Sunã
bayin
lafiya
ma’a@@
ra’a@@
yayin
Yahu@@
hannu@@
taimaki
canja
batun
atu
kāre
shel@@
bayyanan@@
ĩm
huj@@
Du@@
Wancan
uta
ɓe
Tsar@@
sũ@@
Har
garga@@
sãɓ@@
barin
raba
hidim@@
Ubangijina
Mutane
ƙarshen
Marya@@
kinsa
rãyu@@
ãyã
iyaye
alkawarin
gina
salla
mugun
Wataƙila
tsai
Jahannama
haƙ@@
zaton
ƙyale
ari’a
cen
tsan@@
iyãma
rar
Misalai
anar
almajir@@
kanta
Sarki
halic@@
daɗin
dalilin
oyin
Lo
ping
malã
wataƙila
giya
bamban@@
mala’@@
matsa@@
fassar@@
ɗu
manta
Ru’ya
tsare
Mabuwãyi
ãyõyi
iyay@@
add@@
suwa
dalil@@
remin@@
menene
ãce
ãyõyinMu
kness
marasa
addu@@
fushi
Muke
jiɓ@@
ziyar@@
shawarar
tacce
azur@@
tali@@
ikilisiyar
abõ@@
'iku
haske
salama
abta
ied
gaskiyar
tũba
tafar@@
sarauta
koyarwa
tsoron
Farawa
enku
ɗaukan
jira
compan@@
gora
part@@
enmu
duk@@
sãme
shiriya
WA@@
amfana
'auna
tso@@
tsõro
kirki
nemi
tsarkake
los@@
dole
mma@@
gid@@
Pic@@
rantsuwa
matsal@@
mater@@
kowa
kiya@@
gabãnin
mutanensa
faf@@
nẽmi
mamaki
ciya
daɗa
Kõ
'abũ@@
shafaffu
fuskanta
hanyoyi
uwan
ƙu@@
misãl@@
vered
baicin
Wata
hannu
yinsa
majagaba
wahayi
wuri
Zai
'um@@
jawo
Retrieved
cinsu
Resurrection
'uwan@@
Masu
hiri
jimre
lafa
mall@@
Allah@@
labarin
jiki
Ubangijinsa
kuɗi
warsu
iyali
mã
Hell
She@@
maki
yaushe
ninsu
tanã
ƙarin
dãɗi
gara
fito
shugab@@
anka
repen@@
ɓu@@
riya
ɓatar
al’um@@
shirya
nagar@@
Tun
wadã@@
wee@@
mabiy@@
Dõmin
kyautata
zukãtansu
shirki
gabã
karɓa
shan
Maimakon
haɗin
finsa
’i
Bãbu
Gar@@
cũta
lal@@
kak@@
yan’uwan@@
kullum
zãlun@@
tanad@@
ãyõyin
dũk@@
diya
Kana
yaƙi
Har@@
kalmar
kall@@
ƙary@@
koma
ẽne
biyar
saurar@@
bayani
may@@
ra’ayin
arziki
ffu@@
jẽfa
ɗauka
gaɗi
riga
ils
shawar@@
annin
asa
'adi
kowace
fiyar
tabba@@
ancin
yãƙi
ƙo@@
opportun@@
besides
mutãnensa
Ban@@
bushãra
ĩƙa
tsã@@
mahaif@@
waje
sarau@@
shigar
rukun@@
arwa
ized
kõwa
towards
Korinthiyawa
taima@@
sic@@
fuskantar
has@@
maka@@
almajiransa
matasa
kee@@
dangantaka
mũ@@
revelations
haik@@
shige
abũbuwan
cikinku
aman
bãya
al’ummai
auta
zara@@
ƙud@@
kome
gare@@
nazari
atãwa
bakwai
Kor@@
mulki
nĩ@@
Yadda
yuwa
unsa
ɓan@@
mũn@@
faɗ@@
umurni
huɗu
shãfe
sauran
hus@@
Mutu@@
mace
Kal@@
choo@@
tsananin
sãka
iyã@@
raɗaɗi
ambat@@
.Z
Lit@@
yawan@@
ɓã@@
ɗau@@
fan@@
i.e.
kawar
nas@@
Quran
begen
sayi
kinsu
SA@@
wakil@@
mulkin
tuba
Ibr@@
boun@@
dang@@
ƙarfin
halitta@@
auren@@
ƙo
munã
sujada
taw@@
ya’yan
Ayyu@@
kwanaki
kalmomin
littattafai
waɗan@@
keɓe
Ubangijĩna
ɗauka@@
tsir@@
Messengers
Nas@@
'ima
zũ@@
ƙa’idod@@
tsu
wari
admon@@
kowan@@
besto@@
doko@@
Maj@@
ا@@
nũna
chool
jũ@@
ides
gidãjen
naɗa
cim
rebe@@
tsarin
evid@@
gay@@
ƙi@@
Forgiving
koyarwar
zam@@
ƙunshi
gyara
Akwai
shũ@@
kus
ƙoƙarin
ainihin
iyarsa
eness
corru@@
’an@@
cinsa
guje
bangaskiyar@@
girma@@
õyi
zaɓi
rubu@@
'yan
sabuwar
rãyuwar
Yahaya
’u
yab@@
cikakken
sacrific@@
tambaye
ikilis@@
tambayi
gudãna
Mis
Irmiya
miyar
aya
evere
tern@@
tambayoyi
dama
lau@@
tattu
labar@@
truth@@
ƙarƙashin
cũ@@
ami@@
dwe@@
wills
rection
Annabi
zaman@@
gafarta
rufe
waɗanne
yone
ired
faranta
ƙull@@
Ɗan
kãfirci
wasi@@
wab@@
zamani
sãsh@@
dangantakar@@
Eze@@
Timothawus
amin
ĩna
yawancin
matsaloli
Waɗan@@
jama
cond@@
rid@@
bimbini
bayan@@
fiya
mony
ihi
Yaƙub
Afisawa
damu
hasã@@
Dukan
ƙwazo
Fo@@
rabo
NA
sãshe
tambaya
kyauta
kẽ@@
wã
ambaci
ffic@@
Yayin
bawan
lõ@@
mum@@
Haƙ@@
Yusu@@
izg@@
gudu
yu@@
whom@@
Almasihu
’o@@
tsu@@
Musli@@
Ibrãh@@
shimfi@@
SAW
tiyawa
zaman
littattaf@@
taf@@
ĩla
sukan
rayuwar
gather@@
lokatai
duniyar
unawa
alkawar@@
gidã@@
buga
emor@@
Littafin
ƙauna@@
malla@@
dalla
Mãsu
maimakon
halarci
urata
dãwa
ruhun
talifin
ƙwa@@
fuskanci
phy@@
urin
wutã
ƙungiyar
kyautatãwa
ƙungi@@
Nassosi
samaniya
tsoro
daida@@
kacin
biya
abokan
kãma
yan’uwanmu
gwam@@
Iblis
gwada
forbid@@
yiwuwa
Active
rõ@@
uwar
Ayu@@
tabbat@@
jim@@
yiw@@
nẽ@@
shekar@@
hid@@
farta
tãfi
alai
 
iki
kalm@@
rememb@@
jẽ@@
tant
ل@@
shai@@
sarki
Za@@
ciful
imar
zukã@@
tatta@@
ƙarƙa@@
Kiris@@
Ann@@
lab@@
kasan@@
õ
uwan@@
jen
Far@@
õr@@
'ad@@
orin@@
ãh@@
wai
alka@@
¦
Mis@@
matsalol@@
toci
wak@@
For@@
dawwa@@
rayu@@
iyawa
kka
inci
Kar@@
Shaid@@
tsam@@
Mut@@
zat@@
kãfir@@
mawa
litta@@
ung
Ver@@
kyau@@
hanyo@@
erea@@
cikak@@
kā@@
Sab@@
tsakan@@
kama@@
yan’@@
gask@@
ĩmã@@
gment
wahal@@
ũna
azã@@
waha@@
sawa
maha@@
abura
ãyõyin@@
wãyi
rantsu@@
zaɓ@@
impor@@
Wan@@
ي@@
muhimman@@
mats@@
tansu
arz@@
masi@@
shafa@@
Dav@@
chast@@
unã
muhim@@
tambay@@
tsõr@@
ũ
alher@@
ƙwar@@
wards
asso@@
tsor@@
rans@@
Ibran@@
llow
mut@@
al’@@
abũbu@@
ãyõ@@
ires
ɗai
Proph@@
hik@@
aƙ@@
ũba
ب@@
janna
reveal@@
gar
ƙarfa@@
Isha@@
ƙ
alla
baut@@
ereafter
alhẽ@@
All@@
Ĩ@@
zuc@@
minai
tsa
sakama@@
unu@@
punish@@
iris@@
و@@
koyar@@
taƙa@@
Mul@@
ledge
Mũ@@
tsak@@
ilis@@
alh@@
Ye@@
grat@@
ƙa’@@
lly
adal@@
õmin
baic@@
Nasso@@
Alƙ@@
essen@@
dda
bid@@
eved
Muhamma@@
م@@
ع@@
essage
Ubangijin@@
mala@@
yau@@
wwa@@
ة
kull@@
essa@@
omin
ن@@
danganta@@
–@@
tam@@
mugun@@
daɗ@@
ر@@
hat
llen@@
kyautat@@
Shai@@
ت@@
wa’az@@
kali
dawa
naz@@
Rev@@
idod@@
ãnar
shãra
majir@@
Ala@@
gas@@
Ibra@@
ف@@
ruhan@@
د
alities
tattaf@@
ل
nama
ي
onSa
Ubangij@@
د@@
ften
gaskiyar@@
ن
Ɓ@@
adda
ali’u
sli@@
ything
weal@@
ftisma
س@@
abũ@@
mutan@@
aja
Mabu@@
ك@@
oh
Mã@@
Bã@@
uran
ftis@@
Dau@@
ffu
saman@@
amba@@
kari
niya
utã
hannama
ج@@
tray
termin@@
ح@@
katai
band
أ@@
jada
isten
miya
Ibl@@
insp@@
veness
tamba@@
pain@@
ganta@@
samman
ر
ق@@
bish@@
aul’s
bah
م
Ubangi@@
ـ@@
Hak@@
ه@@
Ĩ
ا
õda
ص@@
Isra’il@@
Phara@@
ˈ@@
خ@@
َ@@
Almasi@@
Bethe@@
Afi@@
ãhira
ش@@
Bul@@
jagaba
haya
‎
ː@@
bam@@
Yaƙu@@
ت
ز@@
ط@@
’ya
foll@@
Kris@@
fuskan@@
azzãlu@@
chastis@@
ّ@@
Litta@@
nem@@
imakon
ض@@
yale
hind
°@@
awus
Joshu@@
Ā
{@@
`@@
divid@@
}
Muha@@
ى
ْ@@
trieved
imbini
}@@
Bit@@
$@@
و
{
utata
ب
ع
غ@@
sabo@@
ث@@
itta@@
إ@@
•@@
﻿
ُ@@
ه
imb@@
ʿ@@
ِ@@
ة@@
′@@
ء
س
″@@
gudã@@
஛
ق
ف
Ā@@
…
fficul@@
’akari
ɪ@@
yana@@
ʊ@@
Ƙ
ح
shim@@
ٱ@@
ذ@@
ث
×@@
abubu@@
i.@@
Messen@@
ً
ئ@@
﻿@@
ː
ʒ@@
ط
ش
 
Korinth@@
hanna
~
`
ُ
ʔ@@
Uru@@
ˌ@@
%@@
Ǧ@@
Ṯ@@
͡@@
ʕ@@
ʻ@@
ʾ@@
\@@
raɗa@@
ˤ@@
ض
ز
♠@@
க@@
£@@
§@@
Ṣ@@
€@@
ɒ@@
ʕ
‎@@
Isra’@@
#@@
ʒ
~@@
−@@
ħ@@
ʿ
=@@

آ@@
ṫ
図@@
界@@
世@@
各@@
国@@
ʌ@@
′
″
ً@@
宗@@
@@@
்
ள@@
ṫ@@
ǧ@@
Sabo@@
の@@
º
教
θ
ḫ@@
ḵ@@
|@@
Н@@
؟
ـ
خ
ؤ@@
‡
Ṫ@@
✝@@
️
²
ك
ə
ٌ
ἐ@@
ω@@
ц
…@@
録
▽
ș@@
kwai
ோ@@
்@@
ி@@
▽@@
ற@@
ு@@
ک@@
Ī@@
ی@@
tabb@@
lima
؛
録@@
Ș@@
³
ْ
ج
ܨ@@
ܘ@@
ܡ@@
¤
₦@@
ܐ@@
צ@@
ם@@
َ
،
ء@@
ɜ@@
؛@@
ى@@
ʃ@@
ۢ@@
ħ
ɣ@@
ِ
ndị
nke
anyị
ahụ
dị
bụ
bụ́
Chineke
onye
nwere
otú
mmadụ
mgbe
obi
gị
anya
Ndị
ọzọ
sị
kwuru
bụrụ
pụrụ
ozi
Jizọs
ọrụ
banyere
ndụ
iji
ọma
iche
ụmụ
Kraịst
ọtụtụ
onwe
afọ
okwu
Olee
ụzọ
nile
ala
n’ime
bụla
n’ihi
kwesịrị
ezi
akwụkwọ
n’ebe
Mgbe
oge
eme@@
ụrụ
Baịbụl
niile
kw@@
mkpa
ụfọdụ
mmụọ
adịghị
ụtọ
nyere
ụwa
Anyị
abụọ
n’ihe
atụ
enwe
n’oge
ekwu
nnọọ
omume
n’anya
nwa
Gịnị
Onye
N’@@
ruo
Dị
chọrọ
eji
n’ụzọ
kwa
ụlọ
nwee
ekw@@
Ha
N’ihi
nakwa
nwunye
ọnụ
akw@@
n’obi
ghara
ech@@
hụrụ
ahụ́
oké
adị
ịbụ
asị
ọjọọ
ịdị
uche
nsogbu
eziokwu
Otú
gwara
Ndịàmà
nwoke
echiche
nye
n’ụwa
mbụ
anụ
Nke
atọ
n’aka
nsọ
agha
ụdị
mmiri
pụtara
arụ
n’ụlọ
ịa
enyere
aghị
uo
nna
egosi
nne
ez@@
ibe
abụ
ọ̀
kpọrọ
ezigbo
ume
ụọ
ej@@
nanị
mara
inwe
ụbọchị
ezinụlọ
ntị
enweghị
ọkụ
àgwà
ukwuu
mgb@@
bụghị
ọhụrụ
ego
ọrịa
Alaeze
n’otu
nk@@
n’i@@
ịrị
agaghị
dị@@
jiri
kwuo
sịrị
ịkwa
anọ
narị
ich@@
okwukwe
aara
arị
Akwụkwọ
dịghị
hụ
mkpụrụ
kwere
adị@@
ụta
achọ
gw@@
ziri
mkp@@
nwaanyị
maara
egwu
ịhụnanya
eghị
okpukpe
akụkọ
enw@@
elu
Ị
ugbu
abụghị
ụmụnna
bụ@@
pụta
ịr@@
obodo
ọchịchị
mụ
nri
nwanyị
amụma
eche
eze
Obi
naanị
Okwu
n’afọ
gbara
yiri
ekwa
kwara
malitere
bịa
ekwe
tupu
Nsọ
efe
anaghị
ịga
ochie
achi
karịa
woro
mụrụ
gosiri
ajụjụ
zuru
n’ihu
ịgb@@
ela
bịara
mmehie
anwụ
Ọma
obere
azụ
ghị
ịhụ
ij@@
ụghị
inye
ùgwù
Ọtụtụ
ikwu
ọch@@
nwụrụ
ịch@@
gịnị
ọpụta
ọnwụ
etara
ọgbakọ
aị@@
karịrị
ọnọdụ
ibu
ofufe
mmasị
ntụkwasị
n’ọgbakọ
ọmụmụ
bara
nta
ebighị
kasị
doro
N’oge
ọcha
apụ
apụta
nkwa
n’ọ@@
Ọ̀
siri
chere
ezie
nkw@@
okè
N’ezie
ahụhụ
ihu
dịrị
onyeozi
okenye
agwa
Nna
akpọ
ukwu
Abụ
gbu
Ọrụ
nweghị
atụrụ
n’ọrụ
ọgwụ
n’etiti
ọbụna
puku
akwara
achị
amụ
n’ezie
udo
nwekwara
ugboro
ụmụaka
ókè
agụ
N’agbanyeghị
inyere
òtù
ekwesị
ịkp@@
ahịa
enụ
olileanya
anye
Eze
n’ala
n’obodo
ngwa
eru
gbasara
ụba
Gị
bị@@
arịa
Juu
chi
pụ
ọmụma
njọ
hà
Ụlọ
ikwa
nch@@
ìgwè
kwu@@
ọṅụ
ụgharị
mmanụ
mfe
gaghị
Jisọs
malite
eluigwe
ọsọ
ṅ@@
n’elu
ọkwa
zie
atara
kọrọ
jụrụ
ụkpụrụ
gosi
mmetụta
amamihe
ime@@
aghara
enweta
asụsụ
n’agbanyeghị
gwa
met@@
ụkw@@
gide
mme@@
n’akwụkwọ
ịkw@@
nzukọ
eje
aghaghị
Ụfọdụ
nweta
akpata
Kama
Gụọ
uwe
itere
ụgwọ
rụrụ
ụla
ndụmọdụ
usoro
abịa
ikike
n’ahụ́
àmà
ije
ụgbọ
kwu
ekwara
ajọ
akụkụ
amaghị
eere
ụgha
bụkwa
ịnụ
akọ
ebere
ip@@
ekwesịghị
ụs@@
wep@@
n’I@@
ipụta
ekpe
ụtara
inweta
baptizim
sitere
egbu
ication
àjà
Iji
peeji
n’eluigwe
n’A@@
n’ọnwụ
ọchị
ịma
isii
isiokwu
ọdị@@
asịrị
n’ọnụ
ìhè
ebube
ụkwụ
Mmadụ
ọgụgụ
ugwu
ịgba
agw@@
tụrụ
kacha
Nw@@
aṅaa
mmụta
nwanna
ụkọ
olee
karị
ọpụrụ
n’ozi
real@@
ughị
anw@@
Ilu
nj@@
ọtara
pụt@@
ịrụ
ọchịchọ
ohere
gos@@
chọ@@
efu
onyinye
Ụwa
ọdụ
nwe
arịrị
kwụsị
nwayọọ
mkpọrọ
nyeere
akụziri
mmekọahụ
bụrụ@@
obiọma
umeala
abalị
nkwusa
utere
ekwusa
ọbara
kweere
nde
N’ụzọ
ọnwa
Ị̀
ogologo
ọkà
ekele
metụtara
ịta
ruru
asaa
abata
Site
ewo
Mkp@@
ụsịrị
akpali
ụgh@@
abị@@
Ike
n’s
ụkwa
ịghọta
ịba
aị
N’eziokwu
dịkwa
izu
nnukwu
bụkwanụ
apụghị
sch@@
agụụ
cha
ụma
emekwa
enyemaka
soro
och@@
ụsị
nzube
ezu
ịza
nkịtị
kwesị
mechara
ịmụta
elekọta
n’ị@@
mmanya
n’akụkụ
ejere
mbọ
ụmụ@@
ụtụ
Ụ
nr@@
ghịkwa
ikpeazụ
tere
beghị
mgbakọ
anyere
gburugburu
ebara
kwá
guz@@
hapụ
ighị
obibi
awo
ghọta
mesịrị
ụkwasị
gọ@@
ịmata
n’ụbọchị
ṅụ
Isi
Ọkpara
Oge
kemgbe
n’ike
ụka
ụgbọala
O.A
Jeruselem
aghachi
ozizi
n’okpuru
agbata
chọọchị
ubi
chọpụtara
n’onwe
nọrọ
ọọrọ
ụ̀
mkpebi
kwes@@
n’isi
n’asụsụ
kwe
Unu
ourage
Iwu
abara
kpeb@@
agụ@@
trac@@
ikw@@
ịl@@
akụ̀
ụjọ
olog@@
ochi
ụl@@
fọrọ
oj@@
egharị
ọha
ụra
ọsụ
chọọ
nlereanya
akụzi
ule
nkà
kọwara
mmekọrịta
Onyenwe
Amer@@
iga
agadi
nwanne
gụnyere
ịzi
ozugbo
ịnọgide
chọpụta
ick
upụta
rị@@
ghọọ
N’otu
urịta
Kw@@
nọgide
mmalite
gụ@@
̣t@@
n’uche
achiri
mụtara
Ozi
ụb@@
ajụ
njikere
mgbalị
olu
godị
ịnọ
ịmụ
ọgụ
alụ
ọla
echeta
n’ọnọdụ
pụọ
ust@@
ịchọ
amụta
akọwa
achara
mech@@
gwu
alaeze
gbas@@
grow@@
esiri
agbọghọ
Ebreham
rụ@@
ígwè
arụ@@
ahụ@@
ọg@@
ịs@@
Ah@@
reflec@@
ically
akwado
nwụ
oriri
emere
idere
ngwá
alụmdi
ụ́
Ij@@
ụkp@@
kwukwara
asatọ
arị@@
njem
Maka
gaf@@
tụ@@
uzosi
ghọtara
ola
n’okwu
amara
uch@@
Ụzọ
kpọmkwem
ults
sụgh@@
ịghị
itions
akwu
Nzukọ
At@@
ọzụzụ
acha
hous@@
kpatara
nọgidere
dara
N’afọ
gasịrị
gwụ
ded@@
n’ezi
kpebiri
nụrụ
empl@@
Nche
nyị
ngw@@
Ụmụ
mụ@@
ịgwa
aịa
eas
ghọrọ
occas@@
Josef
òkè
Mụ
tinyere
lec@@
okorobịa
nlekọta
ogbenye
nz@@
gaara
ịkwara
osimiri
kpam
kụziri
izi
amaokwu
Nwanna
aịs
ezighị
zuo
wara
ụnụ
cheta
n’ezinụlọ
deg@@
nghọta
mwute
anyanwụ
n’ọdịnihu
Mkpughe
aru
ọzi
Ndụ
karịsịa
aso
kwad@@
tụlee
aghịkwa
ịgụ
ipt
n’iwu
ịtụ
gbal@@
Ekwensu
atụ@@
itive
pụkwara
ịchị
ezughị
ekweghị
ngọzi
okwa
jupụtara
nwetara
iru
ony@@
amasị
ube
juru
nkụzi
arịta
n’ógbè
n’Ụlọ
illi@@
uju
Brit@@
Mere
ict
ọnwụnwa
ewere
ịjụ
egwú
Ná
anet
igbu
erg@@
Ọzọkwa
onyeisi
Òtù
Bụ
meekwa
Anya
etinye
akarị
n’eziokwu
Jenesis
uz@@
bib@@
Mmụọ
mgbanwe
Aị@@
Tupu
ụso
hapụrụ
asụ
ịz@@
eli
mbà
nwata
ụlite
ọghị
emet@@
n’Akwụkwọ
ịh@@
Nwa
anwe
ndịozi
amalite
Fil@@
megide
CH@@
Ezi
agbalị
chaa
ṅomi
ndọrọ
rụọ
naghị
aṅ@@
iding
nchegbu
nche
inyom
itical
ọrịta
achọghị
ntụ@@
ọ́
emezu
kwus@@
ics
NDỊ
dabeere
agide
gụọ
tụnyere
meere
ices
kwekọrọ
Oké
Onyeàmà
ican
n’ọtụtụ
esịrị
ịka
nduzi
lụrụ
dịịrị
gburu
weere
fes@@
zara
ọgwụgwụ
achọ@@
oleekwa
arm@@
ọdachi
ewep@@
kpọ@@
Ama@@
akwanyere
mkpagbu
KW@@
chara
ịcha
ipp@@
ghachi
emebi
ogige
ụnanya
ịrịọ
akwụsị
Parad@@
egwuregwu
dọkịta
egosipụta
ahapụ
aghọta
Iv
ufe
ọgaranya
ications
apụt@@
N’i@@
contrib@@
mụta
otuto
banye
ụkwara
itinye
ọdịmma
ewu
nzu@@
magazin
nchụàjà
erubere
kwà
n’isiokwu
anụmanụ
aṅụ
ilite
anị
truc@@
ourag@@
event@@
alaka
gụrụ
Ezi@@
emer@@
edebe
ndokwa
n’otú
magburu
Ugbu
ịkwụsị
ndú
ojii
wake
ụlọ@@
ọmịiko
anx@@
ụgb@@
IHE
Any@@
adịrị
prog@@
odide
ụda
edo
Aịz@@
tọrọ
neg@@
I’@@
U.@@
gbanw@@
Mba
ebibi
malit@@
nh@@
baara
gbuo
onwunwe
conclud@@
agbanwe
eekwa
kpal@@
ọkọ
AG@@
eworo
ọhịa
wezụga
Jerema@@
ịk@@
offic@@
anọgide
Katọlik
ụbeghị
nnyocha
emeso
ụm@@
ọtọ
adịgide
Mes@@
Aka
ressed
ụrụ@@
Kọrint
deb@@
che
azi
dị́
ahụmahụ
Pol@@
pụ@@
eful@@
ịlụ
Bekee
agwọ
Ech@@
ụụ
nkume
jik@@
kụ@@
Sch@@
kụziiri
ịkpọ
Efesọs
ejighị
Bra@@
ịda
Tụ@@
Ọch@@
Ukwu
aghụghọ
ekarị
ịkpa
ịtụkwasị
jọ
ukwa
jụọ
orobịa
akwuru
mus@@
ikwusa
itoolu
nwet@@
Ji
Dis@@
nific@@
ABỤ
erela
etiti
arịọ
kpeazụ
HI@@
Nwere
ods
eela
ikwe
iber@@
n’Okwu
apụrụ
ọlite
aving
agharị
AL@@
progra@@
echi
auti@@
eduzi
zụ
clus@@
Afọ
n’ekpere
Betel
Ọnụ
dịg@@
atic
Ịlaị@@
ghọt@@
bipụtara
psalmis@@
wed@@
chiri
overe@@
illed
atụle
rain
ọganihu
atụmatụ
ụ́@@
eeping
ult
mber@@
ination
Agha
fig@@
otes
akpụ
ency
ndekọ
idoro
alị@@
egodị
ghaghị
respec@@
ehi
Okike
atakịrị
sayensị
sì
typ@@
esonụ
igara
aghịzi
akwụ@@
Ònye
alite
nihu
kụzi@@
bụna
emgbe
kọta
ews
ubere
gụ
ocha
lish@@
kwuu
agbu
ju
egos@@
ozu@@
Kọr@@
ụn@@
tụta
kwụkwọ
Jeh@@
kpara
ekọrọ
igwe
ekọta
sogbu
ezi@@
gbakọ
ụjụ
nụ
unye
ụzụ
inụlọ
ure@@
akịrị
ouse
ogb@@
itude
nle@@
jụ
ịọ
Afr@@
egw@@
inw@@
akụ@@
phys@@
ụj@@
kwukwe
gwọ
ụgbọ@@
Ndị@@
gwà
eak
alị
n’okp@@
upụtara
ND@@
ógbè
zizi
Ekw@@
okpu@@
ụzi
.A
ndị@@
ys@@
ụnna
ization
ụàjà
ọchịch@@
ọgw@@
diffic@@
nọg@@
nwụ@@
ọz@@
onụ
atọ@@
leekwa
ema@@
usa
uto
dụ
jọọ
mak@@
kwanụ
gwù
fell@@
itud@@
Ọz@@
Onye@@
BỤ
Ony@@
ileanya
ince
HE
Dev@@
Nzu@@
nwụnwa
rik
Chin@@
atụm@@
kọrịta
ụmọdụ
Ṅ@@
kè
nyocha
gwè
ọgide
sage
ange
Ụl@@
ekwes@@
n’ọdị@@
mihe
Ọt@@
sex@@
bụl
ugb@@
uigwe
emaka
agbany@@
ụsụ
zim
Inst@@
ural
ụgwụ
ucc@@
hè
jà
eanya
ụmahụ
raị@@
Nwan@@
irc@@
mà
ụga
rụ
ịtị
ologo
etan
Mma@@
ụmdi
Moz@@
uregwu
clud@@
ịsịa
Accor@@
fut@@
ogether
Ịl@@
lereanya
odị
agbọgh@@
meala
ito@@
adi
kọahụ
ugburu
dokwa
nwa@@
ensị
ọkịta
ham
anihu
ị́
elation
nwan@@
ezụga
eeji
ịiko
upu
ciples
spired
egrity
rel
yọọ
ụghọ
egr@@
ọmkwem
gbur@@
Baị@@
Hib@@
obi@@
ụmanụ
ekee
fọdụ
ụgụ
akụk@@
ịnị
kwem
brah@@
onye@@
Jis@@
onwu@@
oti
standar@@
agbanyeghị
elem
tù
raịst
Ḿ
Ń@@
ḿ
Jiz@@
ṅ
ṛ@@
ỵ@@
Ê@@
imiri
orob@@
enesis
Č@@
Ä@@
Б@@
atọlik
▼
ọgar@@
̇
eazụ
mhan
bhi
ọle
nọn
emhin
sabọ
ọne
bha
Osẹnobulua
mẹn
ẹbho
ọsi
mhọn
rẹkpa
ribhi
bhọ
ọria
nọnsi
yọle
oga
manman
lẹn
rebhe
mhẹn
sade
Mhan
ranmhude
Bhi
iwẹnna
uwedẹ
ọbhi
iẹnlẹn
agbotu
nọnsọle
guanọ
ẹmhọn
ọlẹn
taman
rẹkhan
Baibo
Ọle
luẹ
nọnsẹn
ọnan
tẹmhọn
agbaẹbho
Bhiriọ
ọkhọle
iJehova
vae
rẹman
bunbun
nyan
nọnsẹmhan
nela
gbera
beji
ọmọn
nọnsele
sẹyẹ
Ọne
ibhio
nanbhi
ẹmhọanta
Ẹghe
Emhin
Ranmhude
sẹbhi
mhọnlẹn
Ele
zẹle
Ọnan
ọkhẹke
Bezẹle
nesọle
hoẹmhọn
ibhokhan
izebhudu
Ene
nyẹnlẹn
ẹlo
dọnmhegbe
ijiẹmhin
kiẹn
imhan
Ojuu
ahu
obhio
mianmẹn
ẹlẹnan
riale
noo
natiọle
okhun
ọbhebhe
Ọkpakinọn
nesi
khọkhọ
daghe
ribhọ
gbẹloghe
hẹi
itẹmhọn
erọnmhọn
Bha
uhọnmhọn
rẹji
isẹhoa
zilo
Mẹn
iJesu
esili
oyẹẹ
imọn
Uwedẹ
urẹọbhọ
ọfure
bọsi
enin
khiale
eghọnghọn
iriọ
ghọnghọn
Ahamiẹn
Nin
ebale
nekẹle
munhẹn
wanre
Ọrẹyiriọ
ọiyi
ọnọghọ
wẹnna
Agbejele
iBaibo
imhẹn
nọọn
mundia
Sẹyẹ
ẹwanlẹn
okugbe
ọbhọ
ọhẹnhẹn
ukpe
amẹn
elin
ọkanẹfan
ijẹmhin
urolo
ikolo
Iriọ
ẹhi
Esali
Beji
ewanlẹn
bhiriọ
kalo
inọnta
sibhi
isikulu
elele
tẹmhọnlẹn
ọkuẹsẹ
ọnọn
Asabọ
Arẹmiẹn
mọn
Ọkhẹke
Ẹbho
Kristiẹn
Obhio
urẹkpa
Rẹ
Aba
Mhẹn
sọnyẹnmhẹn
nanlẹn
denọ
nanrẹ
nọghọ
nọnsẹ
nesẹmhan
edibo
nọnsẹmhẹn
lẹkhẹ
ẹlinmhin
sẹbhọ
iJew
ibo
arẹmiẹn
Fẹ
okpea
kuẹ
ọsaje
fidenọ
tii
tuẹn
usẹn
gbega
ọbe
ọbha
iziẹngbe
diọ
dagbare
ugbẹloghe
bọn
ikeke
ekpẹn
diabe
gbale
tobọle
ilọnmhọn
Ọria
Akizẹbue
inẹn
nesele
ojie
lọ
bue
rẹọbhọ
ebezẹle
obhokhan
gbẹlokotọ
ọkpakinọn
zegbere
Bhọsi
ẹnẹ
ahoho
fẹ
khere
zọn
Ọbha
Nọn
emhanmhan
oriọn
Eria
Ebi
ilo
ILLO
efun
nanbhọre
sunun
kikẹ
olukhọ
itue
Hẹi
unun
uduọle
ọnyẹnmhẹn
mhin
kpanọ
umueria
ẹdẹlẹ
gbegberuẹ
Ẹlẹnan
okh@@
ziẹngbe
Ikpe
Oga
elasẹre
vade
ogẹn
bhii
ọkalo
Inọnta
riọ
lẹnmhin
kpọnọ
etuegbe
kokhun
ebhebhe
ukpẹdẹ
ọkike
enẹn
Ibhokhan
ighan
diabi
oran
khuẹnmhẹn
ikoudure
mhanmhan
ọwanlẹn
ọfinẹfi
ighegheghe
okhọnlẹn
sẹmhan
ekpokpo
imẹn
emianmhẹn
ọnin
iluemhin
Elele
tiọle
sire
Ọiyi
iKristiẹn
ọrebhe
rẹban
regbe
asabọ
gẹn
ahoẹmhọn
ilẹnmhin
fia
dọmanlẹn
ibẹẹ
luẹle
ẹghenin
anyọn
ikhuaẹloghe
Ọkuẹsẹ
Ijiẹmhin
idegbere
iPaul
ogbakha
ikolu
rẹ@@
nọnsẹmẹn
dikẹ
odalo
tee
yere
Ibhio
bhala
imianmẹn
ẹnlẹn
Ọmọn
jayenan
iribhọ
ikpea
enan
anlẹn
iNoah
ahamiẹn
rẹsẹbhi
bhi@@
ọdeọde
bh@@
uzana
usikoko
illo
[...]
